<pad>	0
</s>	0
<unk>	0
,	-2.55938
。	-3.51398
的	-3.74985
、	-4.47284
▁	-4.61895
在	-5.0791
和	-5.18469
了	-5.23742
是	-5.4404
"	-5.47598
:	-5.52336
我	-5.78219
有	-5.8054
中	-5.94816
?	-6.04823
为	-6.0945
与	-6.10481
不	-6.11111
人	-6.11499
(	-6.12591
上	-6.13618
年	-6.14659
)	-6.15668
;	-6.159
对	-6.23262
大	-6.23759
你	-6.25234
!	-6.27148
“	-6.28763
他	-6.30661
等	-6.32452
也	-6.3457
就	-6.35842
而	-6.38977
后	-6.4467
到	-6.44789
一	-6.45261
时	-6.49111
”	-6.55896
以	-6.58466
小	-6.59544
》	-6.60045
要	-6.6034
我们	-6.62177
都	-6.63127
来	-6.63963
从	-6.64535
月	-6.65659
《	-6.65795
将	-6.6754
地	-6.67824
用	-6.67881
一个	-6.68742
会	-6.70244
但	-6.74894
说	-6.75131
去	-6.75227
被	-6.75234
自己	-6.78225
这	-6.8318
可以	-6.84237
下	-6.85314
多	-6.86881
就是	-6.86976
好	-6.87692
没有	-6.87853
她	-6.90076
日	-6.91178
里	-6.95939
这个	-6.96492
之	-6.96992
或	-6.97062
中国	-7.02609
能	-7.0262
公司	-7.03148
可	-7.03312
高	-7.04539
工作	-7.05747
水	-7.06106
着	-7.07007
把	-7.10151
又	-7.10425
新	-7.10529
及	-7.11174
天	-7.11563
但是	-7.11714
还	-7.11747
过	-7.12729
并	-7.12812
个	-7.13984
因为	-7.14027
1	-7.14456
于	-7.14633
的时候	-7.14785
所以	-7.15307
出	-7.15629
2	-7.15979
3	-7.16251
点	-7.18276
做	-7.18872
进行	-7.20287
家	-7.20402
三	-7.20483
看	-7.20814
他们	-7.21088
5	-7.21845
其	-7.22494
子	-7.23459
前	-7.24788
如果	-7.25209
还是	-7.27018
-	-7.27181
心	-7.28725
得	-7.29287
者	-7.30042
那	-7.31255
无	-7.31787
企业	-7.33772
再	-7.34844
长	-7.3518
的人	-7.38596
更	-7.38895
都是	-7.39167
最	-7.40183
让	-7.40289
所	-7.40938
给	-7.41676
很	-7.42208
分	-7.42308
生	-7.42453
时间	-7.4255
当	-7.43259
需要	-7.4357
呢	-7.4383
通过	-7.45446
4	-7.4601
如	-7.4606
法	-7.46146
想	-7.46354
吧	-7.46779
问题	-7.46845
山	-7.47538
向	-7.47712
成	-7.48724
已经	-7.50189
内	-7.50824
本	-7.51148
市场	-7.51956
比	-7.52147
它	-7.5235
由	-7.53583
学	-7.53598
这些	-7.53677
也是	-7.5424
市	-7.56122
一些	-7.57098
区	-7.57168
金	-7.58133
开	-7.58182
发	-7.58543
王	-7.58741
道	-7.58996
10	-7.59217
现在	-7.5974
产品	-7.5985
头	-7.59854
花	-7.59918
老	-7.60057
车	-7.60861
开始	-7.61046
6	-7.61561
服务	-7.63039
名	-7.63693
打	-7.64858
或者	-7.65238
自	-7.65997
使用	-7.66037
文	-7.66065
对于	-7.6618
却	-7.66388
发展	-7.66975
技术	-7.67457
不是	-7.67606
那么	-7.67701
孩子	-7.67786
选择	-7.68545
很多	-7.68588
以及	-7.6957
学习	-7.69689
外	-7.69987
管理	-7.70229
之后	-7.70304
二	-7.71179
啊	-7.72055
生活	-7.73309
国	-7.73428
这种	-7.73442
起	-7.73492
化	-7.73534
没	-7.73753
吗	-7.74009
线	-7.74082
行	-7.74209
该	-7.74369
国家	-7.74415
吃	-7.75333
这样	-7.75552
路	-7.75651
作为	-7.76175
元	-7.77133
而且	-7.7789
其实	-7.79029
气	-7.79225
爱	-7.79592
什么	-7.79613
8	-7.79666
7	-7.79747
海	-7.80319
白	-7.8069
还有	-7.81545
风	-7.81775
光	-7.82589
美	-7.82622
门	-7.82963
两	-7.83169
正	-7.83198
至	-7.83266
手	-7.83323
已	-7.83608
张	-7.83746
系统	-7.83853
可能	-7.83861
项目	-7.84384
万	-7.84533
书	-7.8471
先	-7.84746
要求	-7.85057
教育	-7.8531
不能	-7.85592
则	-7.85662
机	-7.85951
四	-7.86051
面	-7.86278
自己的	-7.8816
设计	-7.8897
才	-7.89029
西	-7.89671
同时	-7.89742
虽然	-7.90019
红	-7.90048
美国	-7.90583
马	-7.90589
活动	-7.90621
只	-7.90636
学校	-7.91154
然后	-7.91869
号	-7.92049
神	-7.9255
投资	-7.92783
不过	-7.92859
成为	-7.93157
走	-7.93178
事	-7.93437
全	-7.93552
带	-7.93596
应	-7.94242
李	-7.94554
五	-7.94963
专业	-7.95281
力	-7.96093
德	-7.96385
城	-7.96511
信息	-7.96993
能力	-7.97491
发现	-7.97526
大学	-7.9759
部	-7.98216
9	-7.98985
经济	-7.99163
老师	-7.99263
最后	-7.99706
经	-7.99838
钱	-7.99852
重	-8.00088
不要	-8.0032
加	-8.00382
学生	-8.00589
入	-8.00647
太	-8.00824
像	-8.00895
因	-8.00998
能够	-8.01068
网	-8.01084
龙	-8.01227
只有	-8.01227
目前	-8.01236
清	-8.01274
:"	-8.01302
东	-8.01412
提供	-8.01842
非常	-8.01943
世界	-8.02548
拉	-8.02737
的话	-8.0277
大家	-8.03293
县	-8.03918
明	-8.04011
行业	-8.04194
使	-8.05125
一样	-8.05258
图	-8.05509
安	-8.05733
这是	-8.06225
方	-8.06289
·	-8.06488
20	-8.0676
华	-8.06788
跟	-8.06865
单	-8.06958
黄	-8.0706
为了	-8.07211
们	-8.07701
只是	-8.07788
量	-8.07959
研究	-8.07991
火	-8.08049
处	-8.08089
主要	-8.08136
南	-8.0815
比较	-8.08217
社会	-8.08299
口	-8.08414
真	-8.08522
回	-8.09137
进	-8.09245
数	-8.09348
因此	-8.09497
文化	-8.09616
根据	-8.1032
其他	-8.10394
如何	-8.10709
干	-8.11189
看到	-8.11467
作	-8.11777
强	-8.12045
其中	-8.12059
军	-8.12127
不同	-8.12198
式	-8.12408
林	-8.12631
出现	-8.1271
一般	-8.13127
云	-8.13519
写	-8.13665
买	-8.14095
体	-8.14326
组织	-8.14363
主	-8.14568
村	-8.14576
平	-8.14597
价格	-8.14749
12	-8.14764
同	-8.15011
一下	-8.15078
死	-8.15149
喜欢	-8.15286
总	-8.15594
度	-8.16016
直接	-8.16049
位	-8.16066
类	-8.16612
石	-8.16632
连	-8.16732
转	-8.17003
你的	-8.17503
建设	-8.17603
第	-8.17677
由于	-8.17783
内容	-8.17922
方法	-8.17996
特	-8.18044
卡	-8.18501
表示	-8.18989
情况	-8.19054
方面	-8.19206
请	-8.19232
病	-8.19372
国际	-8.1973
各	-8.19827
认为	-8.19854
热	-8.19973
次	-8.20679
方式	-8.20823
相	-8.20858
即	-8.20966
快	-8.20988
甚至	-8.21031
问	-8.2107
希望	-8.2129
型	-8.21305
放	-8.21598
品牌	-8.21671
第一	-8.21826
通	-8.21899
以后	-8.21956
见	-8.22049
黑	-8.22173
分析	-8.22194
女	-8.22223
数据	-8.22442
包括	-8.22465
局	-8.22468
来说	-8.22552
感	-8.22948
安全	-8.2299
实现	-8.23006
30	-8.23175
影响	-8.23392
原	-8.23415
各种	-8.23747
比如	-8.23749
斯	-8.2395
受	-8.24041
低	-8.24452
应该	-8.24722
管	-8.24868
克	-8.25041
中心	-8.25062
之前	-8.25418
油	-8.25489
觉得	-8.25678
环境	-8.25798
少	-8.26182
期	-8.26563
个人	-8.26776
平台	-8.26942
此	-8.27504
站	-8.2771
周	-8.2772
网络	-8.28214
米	-8.28371
非	-8.28445
当然	-8.28544
进入	-8.28912
到了	-8.2894
双	-8.29141
你们	-8.29153
游戏	-8.29677
今天	-8.29739
色	-8.3001
药	-8.301
变	-8.30315
部分	-8.30771
医院	-8.31054
全国	-8.31071
我的	-8.31124
科	-8.31139
达	-8.31305
所有	-8.31415
不会	-8.3147
难	-8.31513
结果	-8.3173
继续	-8.31765
声	-8.31968
一直	-8.32011
信	-8.32161
城市	-8.32545
生产	-8.32548
公	-8.32577
教	-8.32631
真的	-8.32947
听	-8.33139
一起	-8.3339
提高	-8.33471
陈	-8.33772
身	-8.33811
一次	-8.33869
业务	-8.33945
便	-8.33998
未	-8.34023
起来	-8.3427
那些	-8.34554
战	-8.34639
具有	-8.34841
获得	-8.34872
字	-8.34897
别	-8.35119
种	-8.35418
称	-8.35501
治疗	-8.35577
选	-8.35597
片	-8.35742
空	-8.35911
流	-8.35985
中的	-8.36012
台	-8.36133
拥有	-8.36321
香	-8.3635
一点	-8.36501
超	-8.36858
报	-8.36889
控制	-8.3721
边	-8.37312
11	-8.37503
定	-8.37504
酒	-8.37535
处理	-8.37544
计划	-8.37939
按	-8.37974
北	-8.38
关于	-8.38015
别人	-8.3866
。”	-8.38675
除了	-8.38695
江	-8.39047
才能	-8.39137
工程	-8.39259
北京	-8.39349
关系	-8.39399
谁	-8.39414
师	-8.39736
用户	-8.3977
眼	-8.39785
基本	-8.39969
朋友	-8.40085
就会	-8.40107
成功	-8.4028
利	-8.40363
讲	-8.40749
动	-8.40917
省	-8.40977
健康	-8.4107
近	-8.41084
房	-8.41087
怎么	-8.41593
叫	-8.41691
他的	-8.41842
手机	-8.41924
功能	-8.42124
河	-8.42309
场	-8.42435
六	-8.42458
皮	-8.42588
飞	-8.42676
以上	-8.42881
条	-8.42925
自然	-8.43267
科技	-8.43442
镇	-8.43475
每	-8.4352
罗	-8.43691
效果	-8.43709
汽车	-8.43758
有些	-8.43786
必须	-8.43836
为什么	-8.43909
决定	-8.44074
儿	-8.44258
标准	-8.44394
A	-8.44446
远	-8.44565
血	-8.44754
情	-8.44823
收	-8.44923
努力	-8.44941
制	-8.45027
一种	-8.45124
率	-8.4515
人员	-8.45183
的是	-8.45185
费	-8.45237
感觉	-8.45265
包	-8.45275
了解	-8.45435
并且	-8.45615
若	-8.45723
当时	-8.45756
电	-8.46113
每天	-8.46154
完成	-8.46213
单位	-8.46275
物	-8.46384
星	-8.46492
满	-8.46524
约	-8.46613
:“	-8.46642
茶	-8.46691
鱼	-8.46709
装	-8.46805
找	-8.47372
刘	-8.47428
只要	-8.47532
级	-8.47807
父母	-8.47902
股	-8.47936
设备	-8.48049
是否	-8.48087
您	-8.48442
机构	-8.48451
后来	-8.48464
木	-8.48515
无法	-8.48533
古	-8.48538
建	-8.48655
出来	-8.48728
不断	-8.48776
且	-8.48933
画	-8.48967
两个	-8.4897
越	-8.49206
未来	-8.4923
岁	-8.4933
建议	-8.49335
深	-8.49668
目标	-8.49703
+	-8.49704
政府	-8.50258
得到	-8.5026
这样的	-8.50306
读	-8.5036
百	-8.5051
阳	-8.50595
知道	-8.50622
特别	-8.50645
银行	-8.50713
尔	-8.50762
上海	-8.50807
支持	-8.50909
青	-8.51018
增加	-8.51043
阿	-8.51248
合作	-8.5129
节	-8.51392
器	-8.51395
间	-8.51463
资金	-8.51473
工	-8.51651
住	-8.518
玩	-8.51952
半	-8.52155
可是	-8.52709
销售	-8.52753
几	-8.52828
发生	-8.52918
集	-8.53115
宝	-8.53191
达到	-8.53676
客户	-8.53754
产业	-8.53853
世	-8.53873
那个	-8.53953
盘	-8.54123
乐	-8.54261
地区	-8.54307
曾	-8.54488
集团	-8.54583
操作	-8.54654
政策	-8.5467
”,	-8.54759
人们	-8.5477
八	-8.54872
之一	-8.55081
球	-8.55103
交易	-8.5515
这一	-8.55745
关注	-8.55806
保护	-8.55904
队	-8.55971
系	-8.56044
15	-8.56228
相关	-8.56315
菜	-8.56372
合	-8.56402
更加	-8.56663
家庭	-8.56742
今年	-8.57187
利用	-8.57323
权	-8.57452
空间	-8.57736
完全	-8.57991
一定要	-8.58162
亿元	-8.58239
经过	-8.5824
日本	-8.58572
精神	-8.58811
业	-8.58868
模式	-8.58888
交	-8.59058
拿	-8.59539
历史	-8.59628
的问题	-8.59741
立	-8.59904
】	-8.6
商	-8.60001
参加	-8.60083
肉	-8.60188
任何	-8.60336
资源	-8.60622
运动	-8.60629
话	-8.60683
帮助	-8.60762
水平	-8.60823
坚持	-8.61334
送	-8.61392
传	-8.61455
准备	-8.61642
是一个	-8.61647
按照	-8.61771
常	-8.61809
国内	-8.61817
店	-8.61944
取	-8.61995
表	-8.62136
最终	-8.62188
某	-8.62228
考	-8.62259
随着	-8.62386
语	-8.62397
指	-8.62402
C	-8.6246
班	-8.62623
第二	-8.62625
分钟	-8.62805
调	-8.62844
九	-8.63332
意	-8.63376
均	-8.63413
解决	-8.63431
提升	-8.63817
专家	-8.64014
换	-8.64018
板	-8.64086
修	-8.64098
形成	-8.64135
任	-8.64188
万元	-8.64363
申请	-8.64539
”。	-8.64662
州	-8.6472
/	-8.64759
19	-8.65083
七	-8.65133
作者	-8.65419
之间	-8.65619
负责	-8.65629
叶	-8.65654
创新	-8.65755
十	-8.65823
条件	-8.65843
行为	-8.65889
a	-8.65895
结构	-8.65917
草	-8.66132
关	-8.66373
价	-8.66379
而是	-8.66544
作用	-8.66572
组	-8.66682
章	-8.66694
~	-8.66861
价值	-8.66873
春	-8.67135
保持	-8.67316
风险	-8.67369
言	-8.67392
共	-8.67481
差	-8.67566
应用	-8.67593
兵	-8.67749
杨	-8.67937
采用	-8.67946
经常	-8.68129
群	-8.68229
考试	-8.68306
土	-8.68475
提	-8.68521
反	-8.68597
如此	-8.68708
人生	-8.68912
知识	-8.68938
作品	-8.68948
掉	-8.68979
活	-8.69109
有关	-8.69176
艺术	-8.69184
粉	-8.6927
铁	-8.69321
也有	-8.69374
求	-8.69497
整个	-8.69518
布	-8.69546
品	-8.696
存在	-8.69625
养	-8.69633
的地方	-8.69641
食	-8.69779
接	-8.69893
金融	-8.69943
旅游	-8.70454
身体	-8.70638
开发	-8.7066
树	-8.70796
一个人	-8.709
代	-8.70947
一切	-8.71188
介绍	-8.71264
质量	-8.71308
题	-8.71323
产生	-8.71461
层	-8.71478
材料	-8.71496
院	-8.71504
重点	-8.71517
玉	-8.7173
18	-8.72072
想要	-8.72237
落	-8.72366
都会	-8.72543
首先	-8.72604
另外	-8.72715
患者	-8.7291
易	-8.72943
版	-8.72957
证	-8.73016
刚	-8.73257
波	-8.73258
改变	-8.73278
教师	-8.73358
离	-8.73614
领域	-8.73935
调整	-8.73937
不好	-8.73943
导致	-8.74105
基础	-8.74183
派	-8.74195
如果你	-8.74212
性	-8.7423
左右	-8.74381
教学	-8.74383
也会	-8.74536
雪	-8.74576
电影	-8.74602
让我	-8.74941
成本	-8.74948
体验	-8.74988
这么	-8.75083
全球	-8.75113
首	-8.7516
改	-8.75188
民	-8.75199
卖	-8.75202
微	-8.75212
底	-8.75409
只能	-8.75457
穿	-8.75817
持续	-8.75826
正在	-8.76001
经验	-8.76157
坐	-8.76161
跑	-8.76195
官	-8.76326
▁(	-8.76475
知	-8.76518
楼	-8.76571
推荐	-8.76816
妈妈	-8.76852
款	-8.76912
直	-8.77249
团队	-8.77398
不知道	-8.77452
总是	-8.7751
一定	-8.7771
s	-8.77776
——	-8.78082
团	-8.78117
需求	-8.78124
笔	-8.78186
50	-8.78396
这里	-8.78483
亚	-8.78707
都有	-8.78794
苦	-8.78806
冷	-8.79079
面对	-8.79164
于是	-8.79201
过去	-8.79228
检查	-8.79366
的事情	-8.79615
根	-8.79633
男	-8.79855
倒	-8.7997
有点	-8.8
乡	-8.80093
基金	-8.80122
接受	-8.8017
雨	-8.80255
上的	-8.803
补	-8.80393
何	-8.80547
据	-8.80695
理解	-8.80761
科学	-8.80895
真正	-8.80939
客	-8.8096
格	-8.81022
c	-8.81051
实施	-8.81313
让人	-8.81333
伤	-8.81354
更多	-8.81385
压	-8.81415
经营	-8.81437
购买	-8.81452
全部	-8.81453
联	-8.81564
规划	-8.81589
轻	-8.81599
B	-8.8177
汉	-8.81955
具体	-8.82169
结	-8.82247
办	-8.82336
建立	-8.82418
佛	-8.82586
早	-8.82611
课	-8.82759
收入	-8.83025
属于	-8.83046
等等	-8.83277
十分	-8.83313
员	-8.83426
靠	-8.83479
破	-8.83588
然而	-8.83605
梦	-8.83693
b	-8.83694
武	-8.83743
增长	-8.83929
第三	-8.84008
期间	-8.84046
参与	-8.84101
喝	-8.84139
超过	-8.84155
牛	-8.84181
G	-8.84223
记	-8.84364
拍	-8.84403
精	-8.8445
皮肤	-8.84637
重要	-8.84692
冲	-8.84756
不仅	-8.8498
形	-8.85281
果	-8.85301
传统	-8.85307
脚	-8.85315
变化	-8.85352
校	-8.85452
对方	-8.85545
的东西	-8.85599
故	-8.85627
原因	-8.8563
命	-8.85636
简单	-8.85645
地方	-8.85647
实	-8.85698
值	-8.85728
笑	-8.85814
阶段	-8.85992
余	-8.8637
建筑	-8.8642
诗	-8.86489
许多	-8.86568
段	-8.866
的时间	-8.86668
往	-8.86682
词	-8.86714
故事	-8.86763
表现	-8.86841
医生	-8.86899
女人	-8.86936
代表	-8.86948
长期	-8.87023
交流	-8.87177
共同	-8.8719
基	-8.87298
综合	-8.87473
压力	-8.8777
治	-8.87947
奇	-8.88007
留	-8.88037
部门	-8.88111
不可	-8.88125
每个	-8.88229
并不	-8.88231
游	-8.88261
)。	-8.88399
视频	-8.88703
音乐	-8.88958
理	-8.88992
令	-8.88999
制度	-8.89001
全面	-8.89012
学院	-8.89028
朝	-8.89096
源	-8.89212
先生	-8.89228
解	-8.89487
家长	-8.89816
桥	-8.89831
状态	-8.89834
有人	-8.89895
田	-8.89941
减少	-8.89972
沙	-8.90009
消费	-8.90039
保	-8.90204
找到	-8.90275
园	-8.9037
明显	-8.90621
杀	-8.90739
夜	-8.90802
里面	-8.90885
100	-8.90937
我国	-8.90975
开展	-8.91002
注意	-8.91137
就可以	-8.91189
机会	-8.91237
网站	-8.91455
相信	-8.91514
现场	-8.91619
体系	-8.91726
酒店	-8.91785
套	-8.91791
人才	-8.91813
音	-8.91889
结合	-8.91953
方向	-8.91964
块	-8.92041
除	-8.92137
算	-8.92139
吴	-8.92234
工业	-8.9226
推	-8.92323
整体	-8.92346
过程中	-8.92554
卷	-8.92642
义	-8.92718
软件	-8.92792
志	-8.92931
提出	-8.93026
联系	-8.93104
顶	-8.93212
法律	-8.93496
g	-8.9357
东西	-8.93578
指导	-8.93739
脸	-8.93811
说明	-8.9391
一年	-8.93969
谈	-8.94031
奖	-8.94085
也可以	-8.94088
论	-8.94213
占	-8.94226
尽	-8.94256
千	-8.94261
乱	-8.94286
完	-8.94371
0	-8.94405
兰	-8.94472
福	-8.94635
优势	-8.94653
看看	-8.94721
曾经	-8.94797
受到	-8.94855
湖	-8.94861
汤	-8.94884
英语	-8.94902
同学	-8.94961
13	-8.95122
毕竟	-8.95191
保险	-8.95215
积极	-8.95216
时代	-8.95227
广	-8.95279
幸福	-8.95294
亲	-8.95363
在一起	-8.95468
好的	-8.95519
圈	-8.95642
16	-8.95752
电子	-8.95817
互联网	-8.95868
雷	-8.95936
灵	-8.96022
然	-8.96034
男人	-8.9607
还要	-8.96078
保证	-8.96206
位于	-8.9631
2018	-8.96422
思	-8.96503
规定	-8.96541
思想	-8.96618
考虑	-8.96626
领导	-8.96644
满足	-8.96795
配	-8.96821
记者	-8.96822
阅读	-8.96857
赛	-8.96865
下来	-8.96999
也不	-8.97096
突然	-8.97106
端	-8.97181
巴	-8.97193
刀	-8.97366
保障	-8.97459
亿	-8.97475
毛	-8.97538
培训	-8.9766
区域	-8.97725
来自	-8.97902
最近	-8.98007
歌	-8.9804
正常	-8.98091
来看	-8.98139
英	-8.98191
背	-8.98323
课程	-8.98333
断	-8.98481
初	-8.98622
甲	-8.98635
松	-8.98725
防	-8.98895
牌	-8.9897
容易	-8.98985
运	-8.98993
塔	-8.99016
灯	-8.99057
现代	-8.99109
做好	-8.99114
退	-8.99122
贵	-8.9919
这次	-8.99193
分享	-8.99215
报告	-8.9922
14	-8.99281
散	-8.99341
造成	-8.99369
我们的	-8.99424
心里	-8.99495
给我	-8.99573
曲	-8.99682
君	-8.99688
快速	-8.99789
哦	-8.99814
现	-8.99861
服	-8.9992
极	-8.99996
我觉得	-9.00154
轮	-9.00316
史	-9.0034
善	-9.00364
有效	-9.00504
足	-9.00567
居	-9.0059
生命	-9.00622
加入	-9.00744
复	-9.00938
招	-9.00958
D	-9.0096
以前	-9.01063
及时	-9.01226
「	-9.01526
排	-9.0155
待	-9.01753
一条	-9.01818
自由	-9.0184
较	-9.01843
是一种	-9.01871
鸡	-9.01887
博	-9.01896
件	-9.01917
运营	-9.01976
2020	-9.0216
最好	-9.02172
室	-9.02199
苏	-9.0225
宫	-9.02356
骨	-9.02496
归	-9.0266
促进	-9.02838
投	-9.02876
执行	-9.03012
终于	-9.03111
维	-9.03166
制作	-9.03228
狗	-9.03495
衣	-9.03631
即可	-9.03823
永	-9.03828
p	-9.0395
快乐	-9.04026
进一步	-9.04125
电话	-9.04134
就能	-9.04147
短	-9.04186
人民	-9.0423
顺	-9.04242
是不是	-9.04279
厂	-9.04328
严重	-9.04515
消费者	-9.0454
货	-9.04557
产	-9.04581
项	-9.04643
S	-9.04745
广告	-9.04843
藏	-9.0488
胜	-9.04947
很多人	-9.05075
语言	-9.05308
普通	-9.05359
规模	-9.05445
丝	-9.05513
角	-9.05671
交通	-9.05788
政治	-9.05854
自我	-9.05916
料	-9.06032
公里	-9.06037
实际	-9.06147
17	-9.06212
绿	-9.06228
确定	-9.06396
过程	-9.06458
观	-9.06467
假	-9.06472
篇	-9.06645
安排	-9.06679
绝	-9.06985
最大的	-9.07043
步	-9.07332
员工	-9.07338
的小	-9.07348
就像	-9.07455
界	-9.07476
街	-9.07516
应当	-9.07586
股票	-9.07591
人的	-9.07622
多少	-9.07645
40	-9.07689
照	-9.07767
智能	-9.07778
事件	-9.07827
技能	-9.07919
晚上	-9.07954
宗	-9.07969
存	-9.08092
属	-9.08218
带来	-9.0823
酸	-9.08309
商业	-9.08365
加强	-9.0839
再次	-9.084
更是	-9.08544
爱情	-9.08569
赵	-9.08643
味	-9.08646
景	-9.08692
任务	-9.08695
座	-9.08726
系列	-9.08735
啦	-9.08774
洗	-9.08815
痛	-9.08932
追	-9.08945
显示	-9.08974
同样	-9.09109
合同	-9.09213
肯定	-9.09219
我想	-9.09239
成绩	-9.09278
m	-9.0935
纸	-9.09425
新的	-9.09444
正式	-9.09608
改革	-9.0967
亦	-9.09714
稳定	-9.0973
农村	-9.09751
帮	-9.09764
发布	-9.09789
P	-9.0993
冰	-9.10002
宁	-9.10004
资料	-9.10092
富	-9.10101
重新	-9.10159
夫	-9.10229
儿子	-9.10232
责任	-9.10468
遇到	-9.10614
调查	-9.10727
几个	-9.10776
享受	-9.10893
错	-9.10948
营销	-9.1107
念	-9.1115
查	-9.11155
有限公司	-9.11237
是什么	-9.11302
推动	-9.11322
一位	-9.11333
理论	-9.11343
仅	-9.11368
怕	-9.11372
领	-9.11565
切	-9.1158
媒体	-9.11702
一天	-9.11821
唱	-9.11931
人类	-9.11982
时期	-9.12137
优秀	-9.12232
训练	-9.12413
梅	-9.12454
d	-9.12501
即使	-9.12545
25	-9.12722
医疗	-9.12807
第一次	-9.12882
往往	-9.12941
失	-9.13109
离开	-9.13194
寒	-9.13248
守	-9.13313
位置	-9.13321
兴	-9.13324
士	-9.13332
回答	-9.13408
也许	-9.13502
是个	-9.13547
成长	-9.13553
翻	-9.13583
它们	-9.13624
香港	-9.13774
针对	-9.13863
费用	-9.13885
随	-9.13942
有了	-9.13963
投资者	-9.14
60	-9.14004
困难	-9.14088
资产	-9.14184
剧	-9.14328
她的	-9.14353
T	-9.14403
培养	-9.14514
的事	-9.1459
24	-9.14661
质	-9.14769
相对	-9.1484
不到	-9.14841
圣	-9.15018
人物	-9.15097
纳	-9.15097
我就	-9.15098
免费	-9.15162
硬	-9.15165
2019	-9.15279
秋	-9.15298
放在	-9.15308
奥	-9.15397
打造	-9.1543
封	-9.15442
我是	-9.1546
丽	-9.15516
文章	-9.15553
盐	-9.15596
银	-9.15716
圆	-9.15722
经历	-9.15722
有一个	-9.15723
社区	-9.15825
看着	-9.15852
阴	-9.15854
计算	-9.15978
练	-9.15979
避免	-9.16007
咨询	-9.16025
临	-9.16035
秀	-9.1606
会议	-9.16193
获	-9.16266
脑	-9.16552
习惯	-9.16552
软	-9.16573
连续	-9.16655
影	-9.16702
泰	-9.16715
望	-9.16799
升	-9.16867
族	-9.16917
宣传	-9.16968
不少	-9.16971
搞	-9.16996
宝宝	-9.17053
儿童	-9.17086
视	-9.17102
康	-9.17134
唐	-9.17265
喜	-9.17273
旧	-9.17278
安装	-9.17315
糖	-9.17342
食品	-9.17365
让你	-9.17614
财	-9.17636
的发展	-9.17645
夏	-9.17873
方案	-9.17876
小时	-9.17892
户	-9.17893
」	-9.18001
证明	-9.18037
比赛	-9.18042
永远	-9.18068
票	-9.18104
英国	-9.18135
堂	-9.18172
恩	-9.18174
速	-9.18197
峰	-9.18199
蓝	-9.18321
主动	-9.18377
齐	-9.18538
大量	-9.18558
分别	-9.18648
以下	-9.18835
取得	-9.18968
烟	-9.18972
呀	-9.18976
并没有	-9.19136
盛	-9.19144
降低	-9.19304
此外	-9.19417
心理	-9.19421
整	-9.19472
状	-9.19585
制造	-9.19629
适合	-9.19695
政	-9.19773
回来	-9.19787
就要	-9.19815
的生活	-9.19869
设置	-9.199
似乎	-9.19927
职业	-9.19972
》、《	-9.20008
剑	-9.20079
船	-9.20083
一家	-9.20206
尤其是	-9.20277
内部	-9.20336
战略	-9.20421
不足	-9.20424
措施	-9.20447
如今	-9.20665
普	-9.20674
不得	-9.20707
每次	-9.20708
素	-9.20714
党	-9.20813
速度	-9.20823
成了	-9.2116
馆	-9.21208
减	-9.21215
给你	-9.21259
岛	-9.2128
莫	-9.21282
从而	-9.21286
静	-9.21297
至少	-9.21331
创业	-9.2138
【	-9.21383
思考	-9.21383
因素	-9.21391
农	-9.21399
细	-9.21471
疾病	-9.21484
并不是	-9.21506
不同的	-9.21684
沟通	-9.21703
中央	-9.2176
不用	-9.21788
些	-9.21859
记录	-9.21888
偏	-9.21958
饭	-9.21964
哥	-9.22037
平时	-9.22038
贴	-9.22054
为主	-9.22091
胡	-9.22093
零	-9.22252
支付	-9.2227
事业	-9.22382
几乎	-9.22384
程度	-9.22512
依然	-9.22624
身上	-9.2265
数量	-9.22678
跳	-9.2269
力量	-9.22708
的感觉	-9.22727
吉	-9.22732
印	-9.22773
解释	-9.22795
烧	-9.22968
尼	-9.2304
徐	-9.23068
k	-9.23071
表达	-9.23082
孙	-9.23083
戏	-9.2315
睡	-9.23166
电脑	-9.23219
不了	-9.23219
副	-9.23247
含	-9.23281
资本	-9.23459
工具	-9.23485
追求	-9.23485
回家	-9.23513
...	-9.23736
逐渐	-9.23757
野	-9.23942
e	-9.23955
情绪	-9.24043
他们的	-9.24149
微信	-9.24154
生物	-9.24255
t	-9.24289
氏	-9.24348
独	-9.24351
句	-9.24373
符合	-9.24393
雅	-9.24448
展	-9.24493
确实	-9.24533
带着	-9.2464
哈	-9.2466
文件	-9.2469
耳	-9.24777
刷	-9.24787
L	-9.2485
无论	-9.24874
运行	-9.24905
l	-9.2494
的方式	-9.25118
越来越	-9.2532
有着	-9.25381
朱	-9.25435
友	-9.25517
大部分	-9.2553
独立	-9.25563
掌握	-9.25587
挺	-9.25606
生态	-9.25692
行动	-9.25766
距离	-9.25767
案	-9.25886
范围	-9.25951
的情况	-9.26026
了一个	-9.26055
倍	-9.26057
事情	-9.26177
意识	-9.26189
三个	-9.26397
恢复	-9.26414
商品	-9.26458
农业	-9.26483
借	-9.26489
小学	-9.26496
打开	-9.26586
推进	-9.26593
异	-9.26611
标	-9.26747
新闻	-9.26759
感情	-9.26783
礼	-9.26888
川	-9.269
挂	-9.26906
环	-9.26928
方便	-9.26937
一份	-9.26937
出了	-9.26953
一旦	-9.26989
必	-9.26997
下面	-9.27019
目	-9.27183
腿	-9.27262
佳	-9.27277
虎	-9.27296
丁	-9.27314
学会	-9.27442
就业	-9.27475
智	-9.27583
2017	-9.27608
需	-9.27617
感到	-9.27672
试	-9.27684
自身	-9.27699
亮	-9.27781
盖	-9.27867
明确	-9.27916
既	-9.28033
专	-9.2804
库	-9.28172
手术	-9.28191
恶	-9.28375
原来	-9.28467
认识	-9.28473
母亲	-9.28488
民族	-9.28546
温	-9.28604
处于	-9.28663
杯	-9.28668
特色	-9.28677
很难	-9.28771
造	-9.28911
的方法	-9.28942
女儿	-9.29028
从事	-9.29137
慢慢	-9.29157
猫	-9.29169
突破	-9.29181
教授	-9.29217
上涨	-9.29338
而言	-9.29548
牙	-9.29552
母	-9.2958
暗	-9.29658
丹	-9.29667
欲	-9.29729
鬼	-9.29759
黄金	-9.29778
自动	-9.29866
21	-9.29887
结婚	-9.29895
父亲	-9.29939
税	-9.30165
人家	-9.30285
贷款	-9.30328
液	-9.30381
瑞	-9.30404
形式	-9.30441
本身	-9.30444
降	-9.30453
改善	-9.30461
里的	-9.30586
创	-9.30661
小编	-9.3081
抓	-9.30813
值得	-9.30819
或许	-9.31025
不再	-9.31051
老板	-9.31239
罪	-9.31245
宋	-9.31321
文明	-9.31399
迅速	-9.31403
也没有	-9.31409
面积	-9.3142
涨	-9.31481
在这里	-9.31513
承担	-9.31635
也就	-9.31647
双方	-9.31653
左	-9.3168
。《	-9.3169
的作用	-9.31777
评价	-9.31912
剂	-9.31965
下降	-9.3203
威	-9.32036
支	-9.32186
结束	-9.32187
密	-9.32253
土地	-9.32316
统一	-9.32325
我也	-9.32426
数学	-9.32575
y	-9.32599
推广	-9.32692
利益	-9.32709
80	-9.32747
许	-9.32814
车辆	-9.32815
仙	-9.32855
细胞	-9.32968
M	-9.32994
风格	-9.33041
特别是	-9.33067
联合	-9.33154
集中	-9.3321
今	-9.33257
上市	-9.33301
以来	-9.33314
停	-9.33339
梁	-9.33386
家里	-9.33399
纯	-9.33414
采取	-9.33443
丰富	-9.33563
程序	-9.33605
都在	-9.33627
办理	-9.33706
还能	-9.33724
提前	-9.33739
到底	-9.33754
青年	-9.33856
不管	-9.33912
上面	-9.34472
创造	-9.34617
x	-9.34634
脱	-9.34648
的原因	-9.34659
良	-9.347
观察	-9.34762
架	-9.34777
仍	-9.34801
伤害	-9.34803
护	-9.34886
所有的	-9.34987
现象	-9.35032
程	-9.35068
末	-9.35113
体育	-9.35152
总结	-9.35189
E	-9.35222
女生	-9.35233
尾	-9.35257
不想	-9.35348
月份	-9.35356
施工	-9.35368
投入	-9.35368
港	-9.35371
引	-9.35602
毒	-9.35602
本人	-9.35635
抗	-9.35659
她们	-9.35689
爸爸	-9.35786
玩家	-9.35815
眼睛	-9.35822
绿色	-9.35891
小说	-9.35918
消息	-9.35944
它的	-9.35962
讨论	-9.35992
放弃	-9.36055
虚	-9.3607
这就是	-9.36153
救	-9.36176
计	-9.36302
核心	-9.36306
用于	-9.36321
令人	-9.3642
运用	-9.36438
智慧	-9.36479
晚	-9.36535
机制	-9.36538
术	-9.36564
枪	-9.36661
f	-9.36724
深圳	-9.36768
规范	-9.36779
紧	-9.36799
才是	-9.36847
出去	-9.36926
指数	-9.37044
很好	-9.3706
例如	-9.3706
那样	-9.37096
厚	-9.37129
配合	-9.37396
慢	-9.37407
列	-9.3743
检测	-9.37468
说话	-9.37584
来了	-9.37597
怎样	-9.37748
众	-9.37852
认真	-9.37913
效率	-9.38039
露	-9.38079
股份	-9.38111
加工	-9.38135
重大	-9.38284
变成	-9.38293
都要	-9.38355
有个	-9.38376
卫生	-9.38401
帝	-9.38421
最高	-9.38586
举	-9.38789
医	-9.38825
好像	-9.38835
发挥	-9.38847
社	-9.38853
担心	-9.38903
做到	-9.38922
一张	-9.39006
发行	-9.39048
数字	-9.39147
动作	-9.39224
的工作	-9.3926
高中	-9.39273
F	-9.39295
的情况下	-9.39385
设施	-9.39423
真是	-9.39427
每年	-9.39459
难以	-9.39492
增	-9.39524
凉	-9.39549
。“	-9.3963
协会	-9.39707
测试	-9.3976
N	-9.3979
也就是	-9.39816
一边	-9.39841
台湾	-9.39893
是因为	-9.39916
委员会	-9.39971
一场	-9.39991
不知	-9.40048
供	-9.40083
实力	-9.40131
毕业	-9.40179
卫	-9.40223
趋势	-9.40234
会有	-9.40234
的一个	-9.40267
弱	-9.40312
也要	-9.4035
轻松	-9.40413
炒	-9.40451
变得	-9.40537
流量	-9.40555
有所	-9.40563
颜色	-9.40582
舞	-9.40647
之中	-9.40664
23	-9.40733
文学	-9.40781
做了	-9.40815
急	-9.40837
弄	-9.40867
的影响	-9.4089
群众	-9.40953
都能	-9.40993
不够	-9.41154
读书	-9.4118
感受	-9.41221
电视	-9.41394
是在	-9.41484
而不是	-9.41512
洞	-9.41628
功	-9.41634
击	-9.41637
明白	-9.41682
两人	-9.41756
太多	-9.41801
更多的	-9.41804
闻	-9.4191
猪	-9.41945
导	-9.41953
还在	-9.41959
久	-9.42006
现实	-9.4204
设	-9.42067
实验	-9.42074
仁	-9.42096
通常	-9.42196
谷	-9.42219
出来的	-9.42234
尽管	-9.42353
维护	-9.42463
仍然	-9.42472
食物	-9.4255
塞	-9.42622
记得	-9.427
过来	-9.42786
不如	-9.42869
来到	-9.42872
鞋	-9.42889
有很多	-9.42894
晓	-9.42927
的朋友	-9.4296
类型	-9.42996
老人	-9.4301
好好	-9.4308
钢	-9.43174
编	-9.4323
公开	-9.43321
成立	-9.43382
羊	-9.43399
愿	-9.43539
去年	-9.43588
托	-9.43606
接触	-9.43728
)、	-9.43769
渠道	-9.4383
人口	-9.43891
象	-9.43935
伊	-9.43956
直到	-9.44053
抢	-9.44095
苹果	-9.44101
植物	-9.44151
世纪	-9.44161
搭配	-9.44268
有什么	-9.44282
网上	-9.44337
很大	-9.44341
注	-9.44402
可能会	-9.44418
大概	-9.44443
实践	-9.44481
28	-9.44526
都没有	-9.4458
韩	-9.44645
做出	-9.44762
折	-9.44799
弹	-9.44843
伯	-9.44855
腰	-9.44957
广州	-9.45006
判断	-9.45032
愿意	-9.45051
美元	-9.45142
天下	-9.45144
图片	-9.45237
混	-9.45255
反应	-9.45291
22	-9.45358
注册	-9.45358
墙	-9.45405
载	-9.45494
合理	-9.45573
钟	-9.45617
升级	-9.45618
股价	-9.45643
多了	-9.45665
个月	-9.45681
斗	-9.45683
以为	-9.45711
失败	-9.4576
补充	-9.45799
还可以	-9.45805
锅	-9.45847
英雄	-9.45902
须	-9.45999
彩	-9.46006
回到	-9.46031
下去	-9.46077
特点	-9.46106
200	-9.46271
w	-9.46277
相比	-9.46279
此时	-9.46313
竞争	-9.46381
疫情	-9.46388
孔	-9.46423
右	-9.46463
监管	-9.46486
营养	-9.46489
物流	-9.46504
那种	-9.46514
引起	-9.46549
魔	-9.46552
施	-9.46604
制定	-9.4675
鲁	-9.46816
关键	-9.4692
去了	-9.47052
高考	-9.4721
鼓励	-9.47273
寻找	-9.47341
节目	-9.47509
么	-9.47593
否则	-9.47639
更新	-9.47667
熟	-9.4767
证券	-9.47708
坏	-9.47904
薄	-9.47936
应该是	-9.47948
当前	-9.47967
房子	-9.48026
持	-9.4803
欢迎	-9.48053
德国	-9.48098
有时候	-9.48116
增强	-9.48206
90	-9.48264
额	-9.48284
对象	-9.48358
家人	-9.48411
听到	-9.4843
统计	-9.48536
粉丝	-9.48562
懂	-9.48648
展示	-9.48654
医学	-9.48695
床	-9.48761
中间	-9.48798
当年	-9.48823
哪	-9.48836
2016	-9.489
限制	-9.48913
至于	-9.49052
之外	-9.49083
欧洲	-9.49085
蒙	-9.49162
动物	-9.49279
喷	-9.49284
上了	-9.49355
n	-9.49367
宽	-9.49371
横	-9.4942
练习	-9.49438
装修	-9.49484
还会	-9.49744
h	-9.4977
支撑	-9.4983
大型	-9.49862
竹	-9.49892
R	-9.50014
核	-9.50101
秦	-9.50203
答	-9.50223
相当	-9.50308
指标	-9.50373
工资	-9.50375
u	-9.50426
500	-9.50491
充分	-9.50531
缘	-9.50542
确保	-9.50587
中学	-9.50593
一片	-9.50723
庄	-9.508
厅	-9.50802
的孩子	-9.50809
机械	-9.50816
理念	-9.50852
感谢	-9.50918
上述	-9.50948
原则	-9.50998
刺激	-9.51122
开放	-9.51128
进行了	-9.51219
意义	-9.51247
计算机	-9.5125
年度	-9.51332
众多	-9.5137
移动	-9.51428
指出	-9.51492
控	-9.51572
各类	-9.51659
嘴	-9.51711
背景	-9.51728
哭	-9.51779
所谓	-9.51861
流程	-9.51929
v	-9.51961
动力	-9.52038
井	-9.52094
基地	-9.52139
监督	-9.5214
加上	-9.52164
K	-9.52231
演员	-9.52241
京	-9.52363
主要是	-9.52372
怪	-9.52399
麻	-9.52403
第四	-9.5242
战争	-9.52438
的重要	-9.52602
最好的	-9.52642
点击	-9.52648
洋	-9.52654
寺	-9.52701
太阳	-9.52724
面前	-9.52802
协议	-9.52952
瓦	-9.53012
看见	-9.53039
三年	-9.53088
真正的	-9.531
府	-9.53109
使得	-9.53145
专门	-9.53167
优化	-9.53187
让我们	-9.53201
26	-9.53204
参考	-9.53206
演	-9.53224
侧	-9.53262
表面	-9.53298
也能	-9.53317
一段	-9.53333
彻底	-9.53403
答案	-9.53435
照片	-9.53452
样	-9.53549
而已	-9.5355
时尚	-9.53566
规则	-9.53603
都可以	-9.53687
营	-9.53713
比例	-9.53743
整理	-9.53745
其它	-9.53824
女孩	-9.53923
H	-9.53976
森	-9.54066
期待	-9.54163
韩国	-9.54252
累	-9.54268
迪	-9.54327
00	-9.54352
聚	-9.54353
人体	-9.54355
及其	-9.54359
让他	-9.54381
完善	-9.5442
死亡	-9.5445
尚	-9.54453
抽	-9.54465
煮	-9.5448
行情	-9.54498
给予	-9.54643
真实	-9.54694
作业	-9.5483
诺	-9.54849
季	-9.5489
下跌	-9.54893
此次	-9.54928
吃饭	-9.54958
强调	-9.55062
面试	-9.5507
意见	-9.55105
当地	-9.55233
居民	-9.55246
多次	-9.55327
年轻	-9.55338
的故事	-9.55396
绝对	-9.55398
形象	-9.55488
主题	-9.55492
陆	-9.55505
资格	-9.55577
具	-9.5562
优	-9.55812
紫	-9.55837
贸易	-9.5588
好了	-9.55881
势	-9.55905
创作	-9.56009
提醒	-9.56117
荣	-9.56144
症	-9.56183
一只	-9.56331
工艺	-9.56353
会员	-9.56371
平均	-9.56449
观众	-9.56453
登	-9.56521
阳光	-9.56576
登记	-9.56615
文字	-9.56646
评论	-9.5665
戴	-9.56783
杰	-9.56806
挑战	-9.56923
传播	-9.5707
一生	-9.5708
之间的	-9.57088
出口	-9.57289
的大	-9.57291
这个问题	-9.57304
溪	-9.57356
有没有	-9.57366
严	-9.57434
都不	-9.57456
研发	-9.57535
鸟	-9.57643
吸引	-9.57672
年龄	-9.57679
吸	-9.57684
皆	-9.57733
环保	-9.57739
业绩	-9.57776
思维	-9.57797
泉	-9.57805
高级	-9.57825
技巧	-9.57851
吹	-9.57885
来源	-9.57917
重视	-9.58097
拍摄	-9.58152
谢	-9.5818
一句	-9.58184
身边	-9.58203
针	-9.5822
休息	-9.58224
净	-9.58314
连接	-9.58315
就在	-9.58349
致	-9.58374
终	-9.58411
道路	-9.58417
布局	-9.58429
庆	-9.58499
航	-9.58545
洛	-9.58566
是指	-9.58596
手段	-9.58717
的机会	-9.5873
墨	-9.58942
险	-9.58968
扣	-9.59
凡	-9.59105
融资	-9.59163
平衡	-9.59247
忙	-9.59252
预计	-9.59277
.	-9.59293
不错	-9.59323
利润	-9.59358
不需要	-9.59363
超级	-9.59379
物质	-9.59492
败	-9.59502
直播	-9.5951
财务	-9.59522
衣服	-9.59529
贝	-9.59602
时候	-9.59674
考生	-9.59781
70	-9.59837
深入	-9.59991
27	-9.60005
配置	-9.6006
中医	-9.60158
最大	-9.60277
尽量	-9.60327
镜	-9.60449
板块	-9.60499
委	-9.60528
学科	-9.60712
化学	-9.60746
虽	-9.60796
在于	-9.60849
泡	-9.60893
池	-9.60894
始终	-9.60979
劳动	-9.60996
定位	-9.61018
站在	-9.61047
祖	-9.61106
滑	-9.61111
成员	-9.61136
职	-9.61214
跌	-9.61288
网友	-9.61302
清楚	-9.61304
相互	-9.61328
爆	-9.61442
蛋	-9.61469
伦	-9.61557
乘	-9.61589
办公室	-9.61617
收益	-9.61689
怀	-9.6173
大众	-9.61735
评	-9.61754
告诉	-9.61757
人士	-9.61808
当你	-9.61837
上升	-9.6188
潮	-9.61896
公共	-9.61934
组合	-9.61958
哪些	-9.62001
这位	-9.62008
尝试	-9.62014
o	-9.62043
皇	-9.62114
婚姻	-9.62245
下午	-9.62248
岩	-9.62278
刚刚	-9.6228
引导	-9.62284
欧	-9.62287
很快	-9.62373
i	-9.62382
丰	-9.62386
报名	-9.62414
境	-9.62566
暖	-9.62576
那就	-9.6266
份	-9.62733
灰	-9.62747
神经	-9.6277
突出	-9.62804
郭	-9.62818
紧张	-9.62842
完美	-9.62845
敢	-9.62848
成熟	-9.62857
淡	-9.62891
不敢	-9.62909
看来	-9.62933
也没	-9.62948
有时	-9.62973
遍	-9.63041
正确	-9.63192
包装	-9.63242
报道	-9.63255
宇	-9.63284
甜	-9.63344
付出	-9.6335
涉及	-9.63427
哪个	-9.63497
骂	-9.63501
后面	-9.63504
胶	-9.63657
嘉	-9.63671
等待	-9.63689
适应	-9.63706
劲	-9.63728
革命	-9.63751
法国	-9.63801
具备	-9.6381
玻璃	-9.63983
看了	-9.64003
诸	-9.64042
主义	-9.64161
雄	-9.64205
关心	-9.64207
划	-9.64212
餐	-9.64214
先后	-9.64241
屏	-9.64341
确认	-9.64398
预防	-9.64486
岗位	-9.64581
灭	-9.64672
维持	-9.64736
办法	-9.64829
特殊	-9.64847
策略	-9.64875
膜	-9.64914
依	-9.64959
协调	-9.64971
最佳	-9.65034
摆	-9.65073
药物	-9.65075
的同时	-9.65111
大多数	-9.65149
看起来	-9.65152
乌	-9.65232
才会	-9.65245
微博	-9.6527
附近	-9.65278
现在的	-9.65281
房屋	-9.65292
至今	-9.65365
300	-9.65403
对比	-9.65405
艾	-9.65407
山东	-9.65416
分为	-9.65434
洪	-9.65435
止	-9.6544
这时	-9.65455
伟	-9.65534
届	-9.65536
他说	-9.6554
犯	-9.6554
损失	-9.65542
细节	-9.65561
浪	-9.65594
印度	-9.65613
珠	-9.65628
记忆	-9.65648
▁"	-9.65655
屋	-9.65706
觉	-9.65741
冬	-9.65762
年代	-9.65841
曼	-9.65845
2015	-9.65867
胃	-9.65873
每一个	-9.65955
征	-9.66009
老公	-9.66042
箱	-9.66129
公园	-9.6617
也不会	-9.66231
秒	-9.66237
肝	-9.66267
湿	-9.66378
可能是	-9.66387
失去	-9.66395
实际上	-9.66466
根本	-9.66468
尊重	-9.66494
聊	-9.66552
你可以	-9.6656
行政	-9.66573
过了	-9.6662
铜	-9.66718
出现了	-9.66745
坑	-9.66757
显	-9.6677
备	-9.66805
警	-9.66823
无论是	-9.66826
碎	-9.66875
也很	-9.66965
当中	-9.67046
依法	-9.67074
我说	-9.67098
一套	-9.67174
概念	-9.67178
负	-9.67232
高度	-9.67323
O	-9.67384
多个	-9.67417
进步	-9.67438
给他	-9.67452
效	-9.67454
索	-9.67461
随后	-9.67462
便宜	-9.67475
成就	-9.67571
顺利	-9.67585
害	-9.67616
机关	-9.67736
开心	-9.67742
推出	-9.67785
估计	-9.67828
品质	-9.67877
农民	-9.67881
浅	-9.6793
放入	-9.67943
宜	-9.68002
兼	-9.68013
赚钱	-9.68085
落实	-9.68104
曰	-9.68178
资	-9.68231
杂	-9.68295
似	-9.68373
环节	-9.68395
饮食	-9.68414
意外	-9.68571
V	-9.68593
2000	-9.68624
通知	-9.68642
明星	-9.68682
扩大	-9.68687
人数	-9.68708
郑	-9.68723
容	-9.68885
周期	-9.68909
的产品	-9.68924
依据	-9.68928
防止	-9.68938
我在	-9.68961
凯	-9.68973
铺	-9.68979
迷	-9.69022
广大	-9.69023
敌	-9.69248
缺乏	-9.69298
良好的	-9.69468
还没有	-9.69498
俄罗斯	-9.69509
鲜	-9.69612
例	-9.69613
各个	-9.69634
娱乐	-9.69642
加快	-9.69694
痛苦	-9.69722
运输	-9.69752
攻	-9.6976
测	-9.69761
探索	-9.69786
走了	-9.69845
装饰	-9.69858
买了	-9.69868
锁	-9.69872
刻	-9.699
的内容	-9.69912
签	-9.69933
经典	-9.70045
逐步	-9.70108
一名	-9.70288
不太	-9.70329
做的	-9.70334
病人	-9.70383
宣布	-9.70418
规律	-9.70464
汇	-9.70465
飞机	-9.70533
南京	-9.70537
就有	-9.70542
接近	-9.70542
吸收	-9.70547
公告	-9.70552
成都	-9.70591
真的是	-9.70612
错误	-9.70619
组成	-9.70621
采	-9.70689
温度	-9.70772
仪	-9.70805
琴	-9.70815
采购	-9.70859
心中	-9.70992
改造	-9.71012
柱	-9.71056
大家都	-9.71065
常常	-9.71107
勒	-9.71219
干部	-9.71239
心情	-9.71254
昌	-9.71259
私	-9.71259
虫	-9.71302
差不多	-9.71329
积累	-9.71373
内心	-9.71391
拒绝	-9.71393
启动	-9.71482
息	-9.71491
案件	-9.71524
装备	-9.71527
不可能	-9.71532
更好的	-9.71629
状况	-9.71641
嘛	-9.7167
顾客	-9.71694
声音	-9.71743
日常	-9.71749
正是	-9.71801
参	-9.71844
官方	-9.71847
瓶	-9.7186
复杂	-9.71933
垃圾	-9.72021
反而	-9.72021
瘦	-9.72025
梦想	-9.72045
或是	-9.72071
姜	-9.72107
～	-9.72135
获取	-9.72139
在中国	-9.72233
实行	-9.7225
--	-9.72419
多年	-9.72462
凤	-9.72517
挑	-9.72536
线上	-9.72558
的能力	-9.72719
腹	-9.72763
拜	-9.72769
健	-9.72861
闹	-9.72933
铁路	-9.72995
怎么样	-9.73013
生长	-9.73031
还没	-9.73094
惠	-9.73149
担任	-9.73187
逃	-9.73198
扎	-9.73228
信号	-9.73334
杜	-9.73385
第一个	-9.73405
艺	-9.73419
写作	-9.73512
房地产	-9.73522
附	-9.7353
准	-9.73535
财富	-9.73535
基于	-9.73549
各位	-9.7358
感染	-9.73598
就算	-9.73617
两年	-9.73635
实在	-9.73644
广东	-9.7379
地位	-9.73796
评估	-9.7383
事实	-9.73874
仓	-9.73892
置	-9.73895
消	-9.73954
麦	-9.74017
攻击	-9.74075
既然	-9.74115
称为	-9.74132
29	-9.74151
著名	-9.7418
移	-9.74215
了很多	-9.74278
的一种	-9.74434
W	-9.74529
竟然	-9.7457
赚	-9.74584
闲	-9.74588
普遍	-9.74607
预期	-9.74643
道德	-9.74738
校园	-9.74744
充满	-9.74745
读者	-9.74753
观点	-9.74756
则是	-9.74773
发表	-9.74788
沉	-9.74793
父	-9.7481
助	-9.74822
角色	-9.74824
残	-9.7484
想象	-9.74885
将会	-9.74927
显得	-9.74961
也不是	-9.7497
高校	-9.75057
多种	-9.75074
证书	-9.75133
浮	-9.7514
小区	-9.75227
害怕	-9.75232
拼	-9.75247
夹	-9.75266
后期	-9.75272
明天	-9.75295
的关系	-9.7532
编辑	-9.75472
透	-9.75477
略	-9.75485
大小	-9.75636
r	-9.75652
股市	-9.75663
天天	-9.75692
免	-9.75697
出版	-9.75716
收到	-9.75725
隆	-9.75801
的过程	-9.75834
很少	-9.75904
昨天	-9.76001
一个月	-9.76083
扬	-9.76085
两个人	-9.76115
贡献	-9.76208
矿	-9.76224
进口	-9.76273
继	-9.76275
一件	-9.76329
减肥	-9.76343
刺	-9.76351
很容易	-9.76359
隔	-9.76372
覆盖	-9.76379
链	-9.76402
顿	-9.76423
一块	-9.76454
]	-9.76458
原文地址	-9.76483
插	-9.76548
脉	-9.76553
自信	-9.76595
描述	-9.76607
莱	-9.76632
他人	-9.76652
让自己	-9.76684
股东	-9.76724
31	-9.76791
皇帝	-9.76847
表演	-9.76892
湾	-9.76926
构成	-9.76937
泥	-9.76942
探	-9.76959
磨	-9.76984
排名	-9.77076
穴	-9.77206
▁《	-9.77247
固定	-9.77278
租	-9.77315
特征	-9.77555
胸	-9.77601
兄弟	-9.77668
务	-9.77671
预	-9.77678
立即	-9.77815
品种	-9.77923
U	-9.78042
遇	-9.78072
亩	-9.78082
啥	-9.781
炎	-9.78142
优质	-9.78171
收获	-9.78223
中国人	-9.78236
症状	-9.78259
本书	-9.78276
》《	-9.7828
年的	-9.7829
十年	-9.78291
矛盾	-9.78383
简	-9.78385
男生	-9.78386
惊	-9.78391
工厂	-9.78401
的行为	-9.78462
重庆	-9.78584
炮	-9.78595
场景	-9.78631
”、“	-9.78661
在线	-9.78731
即将	-9.78828
如果是	-9.78875
会计	-9.79047
恒	-9.79084
进去	-9.79128
柳	-9.7914
财政	-9.79143
贤	-9.79249
留下	-9.79278
并非	-9.79311
地址	-9.79354
近期	-9.79362
律师	-9.79398
本来	-9.79432
那是	-9.79436
泽	-9.7945
目的	-9.79622
教材	-9.7965
预测	-9.79704
类似	-9.79814
冠	-9.7985
本次	-9.79868
如下	-9.79895
妙	-9.79946
招聘	-9.80054
严格	-9.80065
沟	-9.8011
广场	-9.8021
窗	-9.80215
接下来	-9.80229
呼吸	-9.80242
学术	-9.80262
鼻	-9.80285
学历	-9.80404
跨	-9.80486
把握	-9.80496
强化	-9.80503
另一个	-9.80556
理想	-9.80592
楚	-9.80716
润	-9.80716
发出	-9.80737
四个	-9.80749
分类	-9.80792
天津	-9.8084
武汉	-9.80845
的样子	-9.80866
承	-9.80904
不行	-9.81126
马上	-9.81144
不一样	-9.81159
态度	-9.81224
苗	-9.81288
坐在	-9.81338
的主要	-9.81389
游客	-9.81422
冠军	-9.81425
劳	-9.81443
理由	-9.81497
杭州	-9.81552
反弹	-9.81636
你要	-9.81647
睡觉	-9.81686
分配	-9.81751
射	-9.81761
给自己	-9.81833
国外	-9.81857
金额	-9.81857
彼此	-9.81896
考研	-9.81929
巨	-9.81944
—	-9.81975
录	-9.82018
旅行	-9.82044
照顾	-9.82044
反复	-9.82062
搜索	-9.82068
少年	-9.82077
孩子的	-9.82172
纹	-9.82189
上市公司	-9.82315
粗	-9.8235
互相	-9.82378
1000	-9.8242
首次	-9.82469
货币	-9.8247
35	-9.82501
肌	-9.82508
院校	-9.82637
这也是	-9.8266
那里	-9.82788
忠	-9.82913
西方	-9.82942
童	-9.82997
人民币	-9.83035
东方	-9.83051
争	-9.83051
修复	-9.83103
研究生	-9.83143
岁的	-9.83144
高端	-9.83155
最新	-9.8318
互动	-9.83294
名称	-9.83296
邀请	-9.83325
鼓	-9.83326
天气	-9.83333
成果	-9.83353
范	-9.83434
加速	-9.83481
的要求	-9.83553
物理	-9.83576
我会	-9.83614
专业的	-9.8362
博士	-9.8365
呈	-9.83709
上下	-9.83772
妻子	-9.83803
能源	-9.83814
前期	-9.83901
注重	-9.83988
又是	-9.84055
壁	-9.84185
空调	-9.84228
循环	-9.84282
周围	-9.843
z	-9.84359
逻辑	-9.84359
怒	-9.84425
科研	-9.84588
居然	-9.84598
陵	-9.84616
历	-9.84625
肥	-9.84638
哪里	-9.84694
本科	-9.84716
力度	-9.84748
走向	-9.84763
我要	-9.84948
来的	-9.84968
一致	-9.85005
近日	-9.85059
顾	-9.85085
依旧	-9.85171
元素	-9.85171
集体	-9.85191
军事	-9.85211
案例	-9.85231
▁我	-9.85278
胎	-9.85291
唯一	-9.85316
海外	-9.8536
美丽	-9.85363
对此	-9.85397
四川	-9.85401
在这个	-9.85417
复习	-9.85421
调节	-9.85493
尖	-9.85519
禁	-9.85532
百度	-9.85623
信用	-9.85633
不喜欢	-9.85637
法院	-9.85667
危险	-9.85675
红色	-9.85706
稿	-9.85748
更好	-9.85774
孩子们	-9.85792
夏天	-9.85868
题主	-9.85868
档	-9.85928
种植	-9.85965
提供了	-9.86024
车型	-9.86054
2014	-9.86057
司	-9.86089
生存	-9.86118
今日	-9.86133
销	-9.86182
休	-9.86193
幼儿园	-9.86266
赶	-9.86277
两种	-9.86339
输	-9.86354
模型	-9.86363
批准	-9.86387
魂	-9.86416
同意	-9.86481
这一点	-9.86533
所谓的	-9.8659
暴	-9.86685
感动	-9.86692
狂	-9.86695
修改	-9.86711
机场	-9.86727
水果	-9.86732
豆	-9.86737
汗	-9.86758
小孩	-9.86778
缺	-9.86806
重要的	-9.86807
空气	-9.8684
是我	-9.86851
围	-9.86871
公司的	-9.86903
华为	-9.87002
污染	-9.87008
男子	-9.87052
是为了	-9.87084
魏	-9.87151
形态	-9.8716
电商	-9.87186
麻烦	-9.87212
锦	-9.87234
肺	-9.87247
版本	-9.8729
见到	-9.87345
飘	-9.87371
工作人员	-9.87534
跟着	-9.87648
大师	-9.87691
事故	-9.87704
认	-9.8782
一款	-9.87845
币	-9.87962
球队	-9.88001
周边	-9.88004
萨	-9.88096
。【	-9.88128
债	-9.88177
甘	-9.88203
旺	-9.88336
出生	-9.88365
详细	-9.88386
够	-9.88406
拳	-9.88463
穷	-9.88469
头发	-9.88509
烂	-9.88608
服装	-9.88641
的新	-9.88653
婚	-9.88699
益	-9.88709
燕	-9.88731
一定会	-9.88759
拿到	-9.88786
临床	-9.88816
当天	-9.88847
兴趣	-9.88859
同事	-9.88869
作文	-9.88873
勤	-9.88884
破坏	-9.88982
体现	-9.88992
美食	-9.89034
涂	-9.89039
申	-9.89119
狼	-9.89169
纷纷	-9.89182
延	-9.89248
其次	-9.89255
拟	-9.89268
蔬菜	-9.89316
很好的	-9.89364
擦	-9.89375
锻炼	-9.89413
队伍	-9.89449
难道	-9.89461
走势	-9.895
却是	-9.89568
陪	-9.89579
召开	-9.89588
一半	-9.89596
那就是	-9.89658
广泛	-9.89696
最低	-9.89757
角度	-9.89776
X	-9.89829
呈现	-9.89839
老婆	-9.89868
付	-9.89972
导演	-9.89981
金属	-9.8999
掌	-9.89995
到达	-9.90035
的效果	-9.90135
丈夫	-9.90139
某些	-9.9014
回去	-9.90229
辅助	-9.90239
漏	-9.90253
拖	-9.903
情感	-9.90339
这类	-9.90382
青春	-9.90414
上班	-9.90454
?”	-9.90464
懂得	-9.90502
财产	-9.90524
提示	-9.90533
浓	-9.90688
身份	-9.90703
码	-9.90714
丰富的	-9.90778
偷	-9.90778
郎	-9.90804
响	-9.9081
你会	-9.9081
辣	-9.90846
勇	-9.90869
审核	-9.90899
大学生	-9.90933
后的	-9.90947
想到	-9.90962
地球	-9.90969
聊天	-9.9104
焦	-9.91067
抱	-9.91112
味道	-9.91117
不然	-9.9112
能量	-9.91132
购物	-9.91139
前面	-9.91179
拔	-9.91269
逆	-9.91291
己	-9.91319
泪	-9.91327
稳	-9.9137
认证	-9.91399
分手	-9.9145
维生素	-9.9147
肌肤	-9.91522
没什么	-9.91565
豪	-9.91588
枝	-9.91592
有哪些	-9.91626
为何	-9.91677
也在	-9.91682
尊	-9.91801
事实上	-9.91802
是由	-9.91809
鸣	-9.91822
寿	-9.91851
应对	-9.91869
公布	-9.91913
病毒	-9.91943
岗	-9.91999
芳	-9.92118
和谐	-9.92275
设立	-9.92295
负责人	-9.92305
晋	-9.92325
"、"	-9.92354
2013	-9.92361
清洁	-9.92385
的声音	-9.92414
持有	-9.92512
淘宝	-9.92521
一句话	-9.9257
离婚	-9.92589
较大	-9.92598
劝	-9.92599
摸	-9.92609
论文	-9.92657
商家	-9.92686
难度	-9.92707
耐	-9.92736
展开	-9.92796
一是	-9.92805
原本	-9.92815
要是	-9.92836
旁	-9.9287
著	-9.92871
一路	-9.92878
账	-9.92886
恨	-9.92961
没想到	-9.92969
砖	-9.9298
姆	-9.93055
祥	-9.93062
足够	-9.93108
的学生	-9.93121
宣	-9.93153
部位	-9.93212
造型	-9.93273
浙江	-9.93278
般	-9.93321
检	-9.93322
年轻人	-9.93434
你就	-9.93511
基本上	-9.93535
轴	-9.93697
色彩	-9.93717
吐	-9.93731
戒	-9.939
心态	-9.94033
人群	-9.94078
另一	-9.94115
臣	-9.94116
深度	-9.94121
高速	-9.94135
欣赏	-9.94142
得到了	-9.94162
可见	-9.9417
联盟	-9.94177
群体	-9.94211
庙	-9.94226
最重要的	-9.94236
这款	-9.94282
对你	-9.94303
居住	-9.94367
这个时候	-9.94373
算是	-9.94471
配套	-9.94482
美好	-9.94484
驻	-9.94504
休闲	-9.94557
舍	-9.94577
不住	-9.94645
先进	-9.94653
腾讯	-9.94698
就不	-9.94716
反映	-9.94764
加大	-9.9477
肠	-9.94844
二是	-9.94871
宇宙	-9.949
肾	-9.94978
庭	-9.94991
不得不	-9.95021
的位置	-9.95065
收购	-9.951
治理	-9.95136
的需求	-9.95138
巨大的	-9.95139
准确	-9.95154
熟悉	-9.95297
在这	-9.95328
熊	-9.95412
审	-9.95464
一本	-9.95474
闭	-9.95529
颜	-9.9557
翻译	-9.95644
室内	-9.95677
思路	-9.95696
东北	-9.957
脂肪	-9.95746
巧	-9.95754
寻	-9.95821
不懂	-9.9585
之下	-9.95885
停止	-9.95926
爆发	-9.95941
沈	-9.96015
咖啡	-9.96039
废	-9.96046
曹	-9.96068
优惠	-9.96077
消失	-9.96144
部队	-9.96235
一直在	-9.96241
炸	-9.96277
积	-9.96288
近年来	-9.96327
早上	-9.96347
简单的	-9.96361
希	-9.96386
民间	-9.96437
发动机	-9.9647
公路	-9.96526
2010	-9.9662
肌肉	-9.96643
维修	-9.96757
地点	-9.96827
而不	-9.96914
成为了	-9.96914
斑	-9.96914
输出	-9.96936
敬	-9.96942
留学	-9.96969
壮	-9.97003
识	-9.97027
举行	-9.97048
亿美元	-9.97096
患	-9.97112
不大	-9.97116
乃	-9.97138
主席	-9.97172
撞	-9.97196
商务	-9.97206
j	-9.97211
累计	-9.97287
盆	-9.97297
拆	-9.9731
女士	-9.97317
放松	-9.97351
简介	-9.97375
决策	-9.9744
通道	-9.97499
摩	-9.97583
谋	-9.9762
白色	-9.97626
整合	-9.97668
他在	-9.97729
盈利	-9.97738
引发	-9.97756
要注意	-9.9787
作出	-9.97893
振	-9.98068
犯罪	-9.98074
姐姐	-9.98105
吊	-9.98184
小米	-9.98214
危机	-9.98267
摄影	-9.98289
姐	-9.98323
作家	-9.98343
家具	-9.9838
夫妻	-9.98391
此前	-9.98446
家族	-9.9849
碗	-9.98546
看到了	-9.98546
肩	-9.98558
玛	-9.98568
可以说	-9.98582
去做	-9.98594
女子	-9.9862
论坛	-9.98635
在此	-9.98671
瞬间	-9.98698
带来的	-9.98715
释放	-9.98749
搭	-9.98793
记住	-9.98814
甚	-9.98831
壳	-9.98883
怀疑	-9.9892
鸡蛋	-9.98938
尘	-9.98977
批	-9.9899
喊	-9.99013
第二天	-9.99049
寄	-9.99072
纪	-9.99097
两次	-9.99149
古代	-9.99166
正确的	-9.99196
打算	-9.99231
诚	-9.99239
录取	-9.99242
主力	-9.99278
清晰	-9.99319
随便	-9.99345
的态度	-9.9935
尿	-9.99362
震	-9.99386
异常	-9.99415
告	-9.99418
十二	-9.9942
销量	-9.99513
说的	-9.99517
对自己	-9.99523
蛇	-9.99523
三大	-9.99616
2012	-9.99646
仿佛	-9.99666
眉	-9.99717
阵	-9.99788
胖	-9.99886
短期	-9.99887
柜	-9.99941
共享	-9.99975
天然	-10.0008
袋	-10.0016
辉	-10.0017
回复	-10.0018
汁	-10.0025
几天	-10.0026
试验	-10.0026
棉	-10.0027
对待	-10.003
供应	-10.003
账户	-10.0038
当初	-10.0039
电池	-10.004
的变化	-10.0041
原创	-10.0041
重复	-10.0045
较为	-10.0049
丑	-10.0056
房间	-10.006
面临	-10.0063
之所以	-10.0063
战斗	-10.0063
中国的	-10.0063
武器	-10.0065
旗	-10.0067
融合	-10.0075
的过程中	-10.0076
街道	-10.0077
便是	-10.0078
接着	-10.0088
利率	-10.0095
回忆	-10.0098
辞	-10.0098
另	-10.011
球员	-10.0111
食用	-10.0112
亚洲	-10.0123
效应	-10.0131
热情	-10.0132
男孩	-10.0138
办公	-10.0146
第五	-10.0152
巨大	-10.0154
时刻	-10.0155
猛	-10.0156
敌人	-10.0156
三十	-10.0161
打击	-10.0163
俊	-10.0164
奖励	-10.0166
之处	-10.0167
想想	-10.0173
创建	-10.0175
截至	-10.018
机器	-10.0183
司机	-10.0187
页	-10.019
》(	-10.0196
漂亮	-10.0199
主持	-10.0203
景区	-10.021
酱	-10.021
▁第	-10.0213
精彩	-10.0213
包含	-10.0221
娜	-10.0222
一辈子	-10.0226
向上	-10.0229
恋爱	-10.0233
不但	-10.0241
客观	-10.0241
背后	-10.0245
步骤	-10.0251
初中	-10.0253
烦恼	-10.0254
聪明	-10.0254
吨	-10.0255
添加	-10.0258
伏	-10.0259
莲	-10.0264
睡眠	-10.0266
暂时	-10.0272
亭	-10.0274
职工	-10.028
随时	-10.0282
驾驶	-10.0284
餐厅	-10.0293
河南	-10.0295
一线	-10.0303
承诺	-10.0306
的历史	-10.031
幼	-10.031
举办	-10.0312
表明	-10.0312
各地	-10.0314
孝	-10.0316
哲学	-10.0317
允许	-10.0318
的价格	-10.0328
几年	-10.033
稍	-10.0331
地面	-10.0331
区别	-10.0334
都没	-10.0341
2011	-10.0342
想着	-10.0344
一道	-10.0348
反对	-10.0349
招生	-10.0352
通信	-10.0354
一定的	-10.0354
沿	-10.0356
他是	-10.0356
偶尔	-10.037
迁	-10.037
别的	-10.0377
帅	-10.038
碧	-10.038
下载	-10.0386
盒	-10.0388
咬	-10.0393
良好	-10.0398
对手	-10.0399
西安	-10.0403
把自己	-10.0405
染	-10.0413
用来	-10.0425
q	-10.0428
动态	-10.0434
棒	-10.0444
黑色	-10.0449
挖	-10.0449
转移	-10.0453
欢	-10.0458
腾	-10.0462
也就是说	-10.047
孤独	-10.0476
一段时间	-10.0477
粮	-10.0478
可爱	-10.0479
我知道	-10.0482
的表现	-10.0484
画面	-10.0489
粒	-10.0494
撒	-10.0494
杆	-10.0495
滴	-10.0499
缓解	-10.05
店铺	-10.0503
售	-10.0513
消除	-10.0521
有利于	-10.0521
=	-10.0523
填	-10.0524
中华	-10.0527
将来	-10.0529
考核	-10.053
节奏	-10.053
冬天	-10.0534
名字	-10.0535
有限	-10.054
等级	-10.0542
温暖	-10.0542
必然	-10.0545
策划	-10.0545
流行	-10.0556
凭	-10.0556
创意	-10.0557
构建	-10.0558
晨	-10.0563
层次	-10.0564
最多	-10.0571
一把	-10.0575
融	-10.0577
的心	-10.0578
2.	-10.0582
研	-10.0582
俗	-10.0585
收集	-10.0586
你是	-10.0587
唯	-10.0587
信任	-10.0588
骗	-10.0588
疼	-10.0591
侯	-10.0595
我自己	-10.0606
出门	-10.0608
石油	-10.0609
识别	-10.0613
说了	-10.0623
意味着	-10.0624
生意	-10.0625
大陆	-10.0626
上课	-10.063
成分	-10.0632
的好	-10.0635
灾	-10.0644
二十	-10.0646
从此	-10.0646
刑	-10.0648
专利	-10.0656
房价	-10.0657
个股	-10.0661
宏	-10.0662
了吧	-10.0665
嫁	-10.067
墓	-10.067
而在	-10.0673
那时	-10.0674
饼	-10.0679
语文	-10.0683
想法	-10.0687
就这样	-10.0689
因为我	-10.0693
预算	-10.0695
现金	-10.0696
江苏	-10.0696
替	-10.0708
混合	-10.0709
贾	-10.0717
亡	-10.0717
好看	-10.0721
主任	-10.0723
都很	-10.0724
煤	-10.0727
干净	-10.0729
没有任何	-10.0733
查询	-10.0735
邪	-10.0735
森林	-10.0737
早期	-10.0739
卢	-10.0742
示范	-10.0747
超市	-10.0749
醉	-10.075
相同	-10.075
启	-10.0752
障碍	-10.0761
航空	-10.0763
选手	-10.0764
的钱	-10.0766
育	-10.0768
输入	-10.0768
半年	-10.0771
生活中	-10.0775
购	-10.0776
敏	-10.0786
当下	-10.0787
济	-10.0791
习	-10.0796
大幅	-10.0796
强大的	-10.0797
更为	-10.0801
→	-10.0802
早已	-10.0802
基层	-10.0806
成交	-10.0812
书法	-10.0813
原料	-10.0821
嫩	-10.0823
代理	-10.0824
3.	-10.0829
的想法	-10.083
殿	-10.0832
英文	-10.0837
赶紧	-10.0837
毫无	-10.0849
全市	-10.0852
材	-10.0853
年底	-10.0854
瓜	-10.0855
另一方面	-10.0859
总之	-10.0861
形成了	-10.0863
坡	-10.0863
可以在	-10.0873
时光	-10.0873
亏	-10.0878
机器人	-10.0883
一颗	-10.0886
医药	-10.0889
很有	-10.0889
工人	-10.0889
柔	-10.0891
赞	-10.0894
陶	-10.0895
起了	-10.0896
桑	-10.0897
妈	-10.0903
天地	-10.0907
路线	-10.0907
有多	-10.0911
波动	-10.0916
每日	-10.0917
▁1	-10.0925
的目的	-10.0926
一周	-10.0927
高效	-10.0929
大约	-10.0932
不出	-10.0933
吃了	-10.0933
岭	-10.094
保存	-10.0942
义务	-10.0942
所在	-10.0946
蒸	-10.0953
蒂	-10.0953
平方米	-10.0953
事项	-10.0954
尤其	-10.0955
定期	-10.0955
J	-10.0955
依靠	-10.0961
住宅	-10.0963
或者是	-10.098
姓	-10.0982
监测	-10.0986
在家	-10.0987
最为	-10.099
渡	-10.0991
军队	-10.0994
市民	-10.0994
警察	-10.0995
亏损	-10.1001
的力量	-10.1002
堆	-10.1004
什么时候	-10.1006
这件事	-10.1008
含量	-10.1015
素质	-10.1016
敏感	-10.1018
册	-10.1019
开启	-10.1031
屏幕	-10.1033
忘记	-10.1033
批评	-10.1034
让孩子	-10.1035
垫	-10.1035
幅	-10.1036
哥哥	-10.1037
厨房	-10.1041
出发	-10.1041
菲	-10.1049
优先	-10.105
国务院	-10.1054
收费	-10.1059
分布	-10.1065
大脑	-10.107
菌	-10.107
对外	-10.1073
社交	-10.1073
过的	-10.1075
的结果	-10.1077
斤	-10.1077
挡	-10.1082
宝贝	-10.1083
变成了	-10.1084
格局	-10.1088
绕	-10.1093
。2	-10.1098
平安	-10.1099
经理	-10.1099
子女	-10.111
45	-10.1114
什么样的	-10.1119
!”	-10.112
碰	-10.1122
知乎	-10.1124
辛	-10.1125
赤	-10.1128
五年	-10.1129
误	-10.1131
疼痛	-10.1132
赢	-10.1134
更有	-10.1139
反正	-10.1148
电视剧	-10.1153
大盘	-10.1158
宿舍	-10.1163
补贴	-10.1167
镜头	-10.1168
发展的	-10.1173
海洋	-10.1176
前往	-10.1178
死了	-10.118
2008	-10.1182
就开始	-10.1183
邦	-10.1187
可惜	-10.1193
仔细	-10.1193
开了	-10.1196
给了	-10.1196
珍惜	-10.1206
成功的	-10.1211
电力	-10.1212
生活的	-10.1215
抓住	-10.1215
一方面	-10.1217
桃	-10.1217
查看	-10.1219
的同学	-10.1225
南方	-10.1227
粘	-10.1228
四十	-10.1233
相应的	-10.1235
我认为	-10.1238
的状态	-10.124
的名字	-10.1241
I	-10.1244
’	-10.1245
回归	-10.1246
烤	-10.125
企业的	-10.1251
的设计	-10.1253
博物馆	-10.1258
互	-10.1262
不多	-10.1262
▁-	-10.1263
一声	-10.1263
主体	-10.1266
落地	-10.1266
奉	-10.1268
▁【	-10.1269
世界上	-10.1271
始	-10.1282
但我	-10.1287
适当	-10.1287
你自己	-10.1288
徒	-10.1293
相处	-10.1297
*	-10.1298
之类的	-10.1299
鹏	-10.1299
能否	-10.1301
一批	-10.1303
年前	-10.1304
自主	-10.1314
美术	-10.1316
勾	-10.1316
的基础上	-10.132
怎么办	-10.1326
乔	-10.1329
村民	-10.1336
播	-10.1346
醒	-10.1347
养生	-10.1348
下的	-10.1351
大会	-10.1352
同时也	-10.1355
模	-10.1355
幽	-10.1356
出行	-10.1357
竟	-10.1359
低于	-10.1361
总体	-10.1362
乙	-10.1363
不良	-10.1365
有一种	-10.1366
一座	-10.1374
那时候	-10.1376
湖南	-10.1378
缝	-10.1383
转型	-10.1384
带动	-10.1385
浩	-10.1385
的日子	-10.1386
公主	-10.1388
扶	-10.1389
地铁	-10.139
不必	-10.1394
剪	-10.1394
朋友圈	-10.14
赏	-10.141
骑	-10.1411
给大家	-10.1416
热爱	-10.1419
朗	-10.142
舒适	-10.1421
孟	-10.1421
监控	-10.1421
健身	-10.1425
洁	-10.1426
胜利	-10.1427
演出	-10.1437
餐饮	-10.1437
同志	-10.1438
精力	-10.1439
无奈	-10.1439
没有什么	-10.1444
爬	-10.1444
塘	-10.1444
来讲	-10.1445
无限	-10.1447
爽	-10.1458
的基本	-10.1461
方面的	-10.1462
态	-10.1466
指挥	-10.1472
炉	-10.1472
基因	-10.1473
相应	-10.1474
本文	-10.1475
一部	-10.1476
信心	-10.1477
困	-10.1478
坛	-10.1479
观念	-10.1481
护理	-10.1485
究竟	-10.1488
慧	-10.1488
36	-10.1489
诊断	-10.1494
完整	-10.1495
无数	-10.1495
旅	-10.1496
有些人	-10.1498
萧	-10.1504
高兴	-10.1507
傻	-10.1512
某个	-10.1517
人间	-10.1519
围绕	-10.1524
证据	-10.1527
呆	-10.1532
‘	-10.1533
小时候	-10.1536
认定	-10.1542
妻	-10.1544
男女	-10.1555
岸	-10.1558
意大利	-10.156
场所	-10.1568
大数据	-10.1573
400	-10.1583
凌	-10.1591
渐渐	-10.1591
承认	-10.1592
能不能	-10.1593
2009	-10.16
卧	-10.1602
分子	-10.1604
它是	-10.1608
提交	-10.1609
充	-10.1609
做法	-10.161
问我	-10.1613
外面	-10.1614
忍	-10.1615
一层	-10.1615
考察	-10.1616
市场的	-10.1625
相关的	-10.1628
京东	-10.1629
那么多	-10.163
动画	-10.1633
住房	-10.1633
霜	-10.1633
链接	-10.1641
设定	-10.1644
只会	-10.1646
韵	-10.1648
委托	-10.1648
杂志	-10.1648
显著	-10.1653
很重要	-10.1658
收藏	-10.1664
审计	-10.1664
纪念	-10.1668
真的很	-10.167
腔	-10.167
民主	-10.1682
买入	-10.1684
原理	-10.1686
的确	-10.1687
检验	-10.1688
驱动	-10.1691
过度	-10.1698
app	-10.1699
模拟	-10.17
认可	-10.17
超越	-10.1701
让她	-10.1703
要么	-10.1709
股权	-10.1712
脸上	-10.1715
有一天	-10.1718
大多	-10.1721
”“	-10.1721
什么是	-10.1722
理财	-10.1723
呼	-10.1728
不愿意	-10.1732
您的	-10.1734
但在	-10.1738
灵活	-10.1738
统	-10.1738
履行	-10.1742
消耗	-10.1743
震荡	-10.1745
放心	-10.1746
不久	-10.1748
足球	-10.1749
管道	-10.1751
国产	-10.1764
咱们	-10.1765
续	-10.177
引进	-10.1774
隐	-10.1778
增速	-10.1781
舒	-10.1782
很大的	-10.1783
踩	-10.1788
记载	-10.1789
翼	-10.1789
烦	-10.179
那天	-10.1793
福利	-10.1793
适量	-10.1806
固	-10.1806
后悔	-10.1808
现有	-10.1812
摊	-10.182
2007	-10.1825
斜	-10.1826
同学们	-10.1829
装置	-10.1829
精准	-10.1836
的目标	-10.1838
蔡	-10.1839
血管	-10.1843
全世界	-10.1844
告诉你	-10.1845
报考	-10.1849
是谁	-10.185
视觉	-10.1853
这时候	-10.1854
企	-10.186
提到	-10.1861
讯	-10.1861
生气	-10.1866
玄	-10.1866
各大	-10.1868
触	-10.1868
债券	-10.1868
当事人	-10.1871
遭遇	-10.1874
会不会	-10.1875
前后	-10.1883
宅	-10.189
学员	-10.189
微笑	-10.1894
话题	-10.1895
侠	-10.1896
少女	-10.1898
过于	-10.1898
穿着	-10.19
贷	-10.19
周末	-10.1901
以上的	-10.1903
主流	-10.1905
饰	-10.1906
放下	-10.1908
鹿	-10.1911
了一下	-10.1914
回报	-10.1914
迎	-10.1917
大量的	-10.1924
拓展	-10.1925
委员	-10.1927
龄	-10.1927
别人的	-10.1939
新型	-10.1941
想起	-10.1942
负担	-10.1942
赔偿	-10.1942
中文	-10.1942
不容易	-10.1953
有可能	-10.1955
操	-10.1958
这句话	-10.1959
距	-10.1959
危	-10.1974
印象	-10.1977
弯	-10.1977
每一	-10.198
实习	-10.1982
为你	-10.1982
一开始	-10.1993
移民	-10.1994
含有	-10.1995
浪漫	-10.1999
作为一个	-10.2
忘	-10.2009
限	-10.2012
范围内	-10.2015
已有	-10.2016
恐惧	-10.2023
优秀的	-10.2027
透露	-10.2029
占比	-10.2029
告诉我	-10.2033
妹妹	-10.2037
禁止	-10.2037
权利	-10.2039
题目	-10.204
可以通过	-10.204
零售	-10.2041
清洗	-10.2043
一方	-10.2046
一项	-10.2061
万人	-10.2064
课堂	-10.2064
霍	-10.207
一人	-10.2073
承受	-10.2074
实用	-10.208
拨	-10.2082
扫	-10.209
本地	-10.2102
硕士	-10.2107
遗	-10.2108
每个人	-10.2108
疏	-10.2111
解决方案	-10.2111
佛教	-10.2115
的核心	-10.2121
叫做	-10.2122
er	-10.2123
人工	-10.2128
春天	-10.2129
写的	-10.213
人工智能	-10.2131
选择了	-10.2133
岁月	-10.2134
看过	-10.2137
觉得自己	-10.2138
路上	-10.2142
猜	-10.2142
新增	-10.2144
拿着	-10.2147
不管是	-10.2148
Q	-10.215
译	-10.2151
药品	-10.2151
定义	-10.2156
线下	-10.2164
并在	-10.2166
可以说是	-10.2168
摇	-10.2169
云南	-10.2174
这也	-10.2175
权威	-10.2176
决	-10.2176
饮	-10.218
美容	-10.2182
为此	-10.2183
等到	-10.2184
诚信	-10.2185
珍	-10.2188
五十	-10.2189
要想	-10.2199
由此	-10.2202
地产	-10.2203
当代	-10.2208
姑娘	-10.221
也不能	-10.2211
一部分	-10.2214
进攻	-10.2215
恋	-10.222
产品的	-10.2223
取消	-10.2224
知名	-10.2225
又有	-10.2227
面向	-10.2231
妹	-10.2236
强烈	-10.2236
申报	-10.2237
设计师	-10.2239
跟我	-10.2243
是非常	-10.2243
没人	-10.2243
层面	-10.2243
地图	-10.2246
门口	-10.2253
体会	-10.226
1.	-10.2261
男朋友	-10.2261
真心	-10.2264
奔	-10.2264
用心	-10.2265
同比增长	-10.2266
域	-10.2266
序	-10.227
供应商	-10.2272
债务	-10.2275
将其	-10.2275
保留	-10.2279
砂	-10.2281
祝福	-10.2284
忌	-10.2285
其实是	-10.2286
库存	-10.2288
上去	-10.2288
等方面	-10.2297
十五	-10.2297
是有	-10.23
雾	-10.2304
数据显示	-10.2308
雕	-10.2311
了吗	-10.2312
春节	-10.2318
一大	-10.2321
滚	-10.2322
挤	-10.2323
迈	-10.2325
律	-10.2326
北京市	-10.2327
见面	-10.2327
裂	-10.233
:1	-10.2332
全身	-10.2334
萌	-10.2334
听说	-10.2335
葱	-10.2335
赫	-10.2336
霞	-10.2337
鸿	-10.2339
美丽的	-10.234
凶	-10.2341
走进	-10.2343
看完	-10.2346
独特的	-10.2347
编制	-10.2349
窝	-10.235
临时	-10.2351
愁	-10.2352
下了	-10.2354
按摩	-10.2354
影片	-10.2356
抹	-10.2357
太大	-10.2358
和平	-10.2363
扑	-10.2363
厉害	-10.2366
消化	-10.2369
把它	-10.237
差异	-10.2377
莉	-10.2378
司法	-10.2381
教练	-10.2382
剧情	-10.2384
一遍	-10.2385
随意	-10.2385
相反	-10.2386
5%	-10.2387
艳	-10.2395
有效的	-10.24
搜	-10.2401
行业的	-10.2405
凭借	-10.2406
娘	-10.2407
这么多	-10.2412
北方	-10.2413
地说	-10.2418
线路	-10.2419
业主	-10.2421
订单	-10.2426
述	-10.2428
32	-10.243
榜	-10.243
校长	-10.2431
是最	-10.2434
仅仅	-10.2435
稍微	-10.2437
弟弟	-10.2447
ar	-10.2448
新鲜	-10.2448
四大	-10.2451
焦虑	-10.2454
物品	-10.2455
彭	-10.246
胆	-10.2465
醋	-10.247
获得了	-10.2473
席	-10.2475
辰	-10.2476
俩	-10.2478
满意	-10.2494
一时	-10.2496
尴尬	-10.25
裤	-10.2506
议	-10.2511
的角度	-10.2513
让他们	-10.2519
羽	-10.252
强大	-10.2525
块钱	-10.2528
贪	-10.2529
民警	-10.2531
到现在	-10.2532
享	-10.2534
闪	-10.2534
事物	-10.254
测量	-10.2544
埋	-10.2548
授权	-10.255
兽	-10.2553
威胁	-10.2554
学者	-10.2556
一看	-10.2556
是很	-10.256
顾问	-10.2563
炼	-10.2565
据说	-10.2567
之路	-10.2567
途径	-10.2575
邓	-10.2576
约定	-10.258
弗	-10.258
坚定	-10.2581
新疆	-10.2584
美女	-10.2595
更高	-10.2597
大赛	-10.2601
轨	-10.2605
氛围	-10.2607
要有	-10.2609
消防	-10.2613
打电话	-10.262
冲突	-10.262
协助	-10.262
金钱	-10.2624
强势	-10.2626
发育	-10.2629
3000	-10.2629
风景	-10.2632
涨幅	-10.2633
董	-10.2637
有机	-10.264
的精神	-10.2645
后续	-10.2645
浪费	-10.2646
展现	-10.2654
一点点	-10.2659
省级	-10.2659
千万	-10.2663
冯	-10.2666
请求	-10.2667
欠	-10.2669
芯片	-10.2671
被人	-10.2672
立刻	-10.2672
的世界	-10.2673
小组	-10.2677
诊	-10.2678
避	-10.268
争取	-10.2681
协	-10.2682
一级	-10.2685
泛	-10.2687
宗教	-10.2689
鸭	-10.2691
客人	-10.2692
酷	-10.2696
悦	-10.27
再加上	-10.2704
传递	-10.2706
。3	-10.2707
惨	-10.2709
菩萨	-10.2714
出现在	-10.2724
找不到	-10.2726
百姓	-10.2731
用品	-10.2734
技	-10.2743
回应	-10.2756
的食物	-10.2762
的信息	-10.2762
是我们	-10.2768
哪怕	-10.2768
劫	-10.277
谢谢	-10.2771
较高	-10.2772
衰	-10.2775
的女人	-10.2777
的选择	-10.2778
反馈	-10.2785
[	-10.2792
用了	-10.2798
城区	-10.2801
活着	-10.2809
谱	-10.2811
级别	-10.2814
厂商	-10.2816
奋斗	-10.2818
愈	-10.282
因为他	-10.2822
对话	-10.2823
几次	-10.2824
代码	-10.2831
悲	-10.2834
不上	-10.2835
我们在	-10.2837
长大	-10.2839
你说	-10.284
流动	-10.2843
的企业	-10.2844
做什么	-10.2847
常见	-10.2848
产量	-10.2849
外观	-10.2852
走到	-10.2862
日子	-10.2862
也可	-10.2862
乎	-10.2865
访	-10.2865
禅	-10.2873
丢	-10.2873
境内	-10.2882
受伤	-10.2882
我都	-10.2884
脂	-10.2885
发生了	-10.289
全省	-10.289
大道	-10.2892
怀孕	-10.2892
在一个	-10.2893
多数	-10.2895
亲自	-10.2895
好友	-10.2896
尺寸	-10.2899
辛苦	-10.29
国内外	-10.2901
传统的	-10.2905
河北	-10.2906
献	-10.291
我们要	-10.2911
待遇	-10.2913
估值	-10.2914
显然	-10.2914
将军	-10.2915
税收	-10.2918
她说	-10.2923
搬	-10.2927
公众	-10.2934
就没有	-10.2939
赴	-10.2942
建成	-10.2942
遗憾	-10.2944
传说	-10.2946
现代化	-10.2948
这就	-10.2949
袁	-10.2949
荒	-10.2949
涛	-10.2952
陪伴	-10.2954
道理	-10.2955
依赖	-10.2956
景观	-10.2967
正好	-10.2975
单独	-10.2978
辅	-10.2983
工程师	-10.2988
各项	-10.299
的意义	-10.2991
适用	-10.2998
公平	-10.3004
洲	-10.3007
玉米	-10.3011
鉴定	-10.3019
所以我	-10.3021
地下	-10.3032
4.	-10.3034
众生	-10.3034
西北	-10.3034
第一百	-10.3035
割	-10.3035
不说	-10.3037
很简单	-10.3043
高于	-10.3043
厘米	-10.3046
补偿	-10.3051
名单	-10.3052
一支	-10.3058
体内	-10.3058
责	-10.3059
即便	-10.3064
进了	-10.3065
一步	-10.3065
我们可以	-10.307
认知	-10.3072
女朋友	-10.3078
漆	-10.3079
加盟	-10.3079
把我	-10.3079
研究院	-10.308
岳	-10.3082
实验室	-10.3083
图书馆	-10.3085
吕	-10.3089
妆	-10.3092
感冒	-10.3096
很高	-10.3103
快递	-10.3104
漫画	-10.3106
予以	-10.3117
这两个	-10.3121
加拿大	-10.3122
碑	-10.3124
虾	-10.3124
在美国	-10.3125
得知	-10.3125
深刻	-10.3125
分数	-10.3128
审批	-10.3129
租赁	-10.3131
清理	-10.3136
形势	-10.3136
2005	-10.3136
工作的	-10.3138
疑	-10.3139
带领	-10.314
桂	-10.314
有助于	-10.314
晒	-10.3142
高达	-10.3143
600	-10.3143
无人	-10.3145
下方	-10.3146
合适	-10.3146
对我	-10.3148
中华人民共和国	-10.315
说过	-10.3158
大大	-10.3162
公众号	-10.3163
抱怨	-10.3163
故意	-10.3174
不去	-10.3178
课题	-10.3182
迹	-10.3183
花园	-10.3183
传承	-10.3183
宠物	-10.3186
策	-10.319
吾	-10.3192
没有人	-10.3195
感受到	-10.3195
年纪	-10.3196
总统	-10.3197
冻	-10.3198
温柔	-10.3198
文艺	-10.3201
干燥	-10.3204
功夫	-10.3209
默	-10.321
也好	-10.3214
中午	-10.3215
说是	-10.3217
各自	-10.3221
损	-10.3222
领域的	-10.3223
更换	-10.3226
弦	-10.3229
佩	-10.3229
棋	-10.323
涉	-10.3234
键	-10.3238
上帝	-10.324
同一	-10.3241
宾	-10.3242
渣	-10.3246
手里	-10.3247
汪	-10.3251
mm	-10.3258
上学	-10.3258
错了	-10.326
血液	-10.3272
会在	-10.3275
实现了	-10.3282
50%	-10.3284
遂	-10.3287
犬	-10.3289
博客	-10.3292
自行	-10.3293
活跃	-10.3296
的意思	-10.3298
一篇	-10.3303
水分	-10.3304
兴奋	-10.3308
退出	-10.3309
的特点	-10.3315
山西	-10.3315
我家	-10.3318
的关键	-10.332
师傅	-10.3322
对面	-10.3325
的研究	-10.333
典	-10.3331
期货	-10.3338
湖北	-10.3339
激励	-10.3343
如果有	-10.3344
双手	-10.3346
病情	-10.335
中有	-10.335
平常	-10.335
去看	-10.336
湘	-10.336
保健	-10.3366
好多	-10.3369
档案	-10.337
专用	-10.3371
欣	-10.3375
不止	-10.3376
有人说	-10.3379
不算	-10.3379
扇	-10.3381
我还	-10.3381
这是一个	-10.3388
转换	-10.3395
);	-10.3396
化工	-10.3399
孤	-10.34
抱着	-10.3402
颜值	-10.3404
赖	-10.3405
下滑	-10.3406
苍	-10.3406
20%	-10.3414
10%	-10.342
遭	-10.3423
拿出	-10.3423
舞蹈	-10.3426
因而	-10.3428
世间	-10.343
煎	-10.3432
参数	-10.3432
签订	-10.3436
职务	-10.3441
广西	-10.3441
定制	-10.3441
在我	-10.3442
一番	-10.3444
机遇	-10.3445
每个人都	-10.3445
披露	-10.3449
延续	-10.3453
苏州	-10.3454
厂家	-10.3455
钻	-10.3456
运作	-10.3459
全新	-10.3459
和其他	-10.3466
导师	-10.3468
影视	-10.3473
塑料	-10.3479
燃	-10.3479
康复	-10.3483
串	-10.3484
一度	-10.3495
支出	-10.3501
减轻	-10.3502
完成了	-10.3503
试点	-10.3504
地震	-10.3507
审查	-10.3507
赌	-10.3509
一波	-10.3513
的就是	-10.3517
有的人	-10.3518
还是要	-10.3519
修行	-10.3522
哈哈	-10.3524
部署	-10.3525
调研	-10.3526
手续	-10.3528
熬	-10.353
缩	-10.353
会出现	-10.3532
经济发展	-10.3533
舟	-10.3538
疾	-10.3538
框架	-10.3539
的男人	-10.3541
强度	-10.3542
帮忙	-10.3545
孕	-10.3545
科目	-10.3548
是以	-10.3548
眼里	-10.355
活力	-10.3551
共有	-10.3551
歌曲	-10.3554
穿越	-10.3558
日期	-10.3558
交换	-10.3571
西南	-10.3572
为什么要	-10.3576
长江	-10.3576
家的	-10.3577
黑暗	-10.3584
大气	-10.3587
一定是	-10.3594
都市	-10.3601
讲解	-10.3602
完了	-10.3603
阁	-10.3604
给她	-10.3606
33	-10.3606
不怕	-10.3608
电子商务	-10.3609
均匀	-10.3611
荣誉	-10.3614
硬件	-10.3617
房产	-10.3619
公益	-10.362
蛮	-10.362
脏	-10.3623
接到	-10.3632
主人	-10.3632
乐观	-10.3634
悟	-10.3636
肯定是	-10.3637
妖	-10.3642
权益	-10.3643
粥	-10.3643
尝	-10.3644
耐心	-10.3647
多家	-10.3649
苏联	-10.3649
齿	-10.3653
百万	-10.3657
远离	-10.3658
乃至	-10.3659
鹰	-10.366
更大	-10.3661
人文	-10.3662
地理	-10.3664
买卖	-10.3664
十八	-10.3673
在哪里	-10.3673
转让	-10.3673
臭	-10.3674
诗人	-10.3678
幕	-10.3685
惊喜	-10.3685
婚礼	-10.3686
恐怖	-10.3688
的作品	-10.3691
第二个	-10.3696
返	-10.3697
说到	-10.3697
祝	-10.37
气质	-10.37
热点	-10.37
情况下	-10.3701
灌	-10.3704
_	-10.3708
舒服	-10.371
走出	-10.3713
是中国	-10.3715
的一些	-10.3717
多么	-10.3724
有一些	-10.3725
历史上	-10.3726
但是我	-10.3728
锋	-10.3735
团体	-10.3735
董事长	-10.3736
冲击	-10.3739
扩张	-10.3739
肖	-10.3741
砸	-10.3742
扔	-10.3745
逐	-10.3746
青岛	-10.3746
身份证	-10.3747
娇	-10.3748
忘了	-10.3749
添	-10.3751
出台	-10.3754
疯狂	-10.3756
单词	-10.3762
留言	-10.3762
如果没有	-10.3764
蜜	-10.3765
违法	-10.3765
必须要	-10.3768
轻轻	-10.3768
遇见	-10.377
现任	-10.3773
故障	-10.3777
的学习	-10.3778
长时间	-10.378
的人生	-10.3783
可以用	-10.3784
筋	-10.3787
今后	-10.3799
改进	-10.3802
领先	-10.3803
的数据	-10.3807
作战	-10.3808
01	-10.381
叔	-10.381
Y	-10.3813
达成	-10.3815
铝	-10.3815
|	-10.3817
灵魂	-10.3819
的现象	-10.3819
的形式	-10.382
讨厌	-10.3821
0.	-10.3825
充电	-10.3826
身材	-10.3826
娃	-10.3829
帕	-10.3829
未来的	-10.383
同步	-10.383
了个	-10.384
一会儿	-10.3843
牙齿	-10.3843
羡慕	-10.3846
外界	-10.3853
宿	-10.3854
违反	-10.3859
中药	-10.3861
刮	-10.3863
进来	-10.3868
差别	-10.3869
就好	-10.3869
上来	-10.387
昨日	-10.3873
功效	-10.3877
舌	-10.388
安慰	-10.3881
爱心	-10.3886
贺	-10.3887
感恩	-10.3891
栏	-10.3898
慈	-10.3899
牧	-10.39
四年	-10.3901
玩具	-10.3906
合适的	-10.3907
柏	-10.391
加油	-10.3911
御	-10.3912
和你	-10.3916
差距	-10.3917
正面	-10.3919
我不	-10.3921
诉	-10.3922
适用于	-10.3924
青少年	-10.3924
短线	-10.3924
藤	-10.3925
关键词	-10.3932
不见	-10.3932
净利润	-10.3933
水泥	-10.3944
访问	-10.3948
旋	-10.395
官网	-10.3953
以外	-10.3954
le	-10.3955
主角	-10.3957
5000	-10.3959
有机会	-10.3963
掉了	-10.3964
垂	-10.3966
保养	-10.3966
处罚	-10.3968
尤	-10.397
在网上	-10.3971
人心	-10.3972
有望	-10.3972
槽	-10.3975
到位	-10.3978
诉讼	-10.3979
资质	-10.3981
桌	-10.3982
分离	-10.3984
在北京	-10.3986
堡	-10.3988
关节	-10.3992
发放	-10.3993
出版社	-10.3994
损害	-10.3995
转载	-10.3997
摘	-10.3998
癌	-10.3999
研究所	-10.4003
倾	-10.4004
兹	-10.4005
石头	-10.4007
合格	-10.4007
失望	-10.4008
致力于	-10.4009
夺	-10.401
大于	-10.4014
魅力	-10.4014
上线	-10.4015
防护	-10.4015
同比	-10.4018
辅导	-10.4018
陷入	-10.4018
拍照	-10.4026
被称为	-10.4026
声明	-10.4028
给孩子	-10.4031
柴	-10.4032
商标	-10.4032
尽快	-10.4033
磁	-10.4037
的价值	-10.4039
频	-10.404
局部	-10.404
诞生	-10.404
毛泽东	-10.4045
38	-10.4046
仿	-10.4046
辐射	-10.4048
擅长	-10.405
判	-10.4053
假如	-10.4056
原油	-10.406
是真的	-10.4062
的文章	-10.407
浆	-10.4074
原始	-10.4075
解放	-10.4076
退休	-10.4077
命运	-10.4078
货物	-10.4078
卖出	-10.4082
心理学	-10.4084
家居	-10.409
帽	-10.4091
曝光	-10.4092
非法	-10.4095
做事	-10.4096
心灵	-10.4097
早就	-10.4099
培	-10.4106
这个世界	-10.4106
宠	-10.4109
相当于	-10.411
小姐	-10.4113
公交	-10.4114
乡村	-10.4114
起到	-10.4115
鼎	-10.4115
流通	-10.4116
外国	-10.4117
冬季	-10.4118
万吨	-10.4123
找到了	-10.4125
是你	-10.4129
有钱	-10.4131
执	-10.4134
越来越多	-10.4136
秘密	-10.4136
平静	-10.4138
渴望	-10.4139
手法	-10.4142
在国内	-10.4145
复合	-10.4157
平等	-10.4158
百年	-10.416
礼物	-10.416
监	-10.4167
妇女	-10.4168
顺序	-10.417
失去了	-10.4172
这场	-10.4176
不动	-10.4177
个体	-10.4177
敷	-10.418
西部	-10.4182
继承	-10.4185
窗口	-10.4187
一系列	-10.4187
损伤	-10.4189
党员	-10.419
蛋白质	-10.4191
的规定	-10.4191
舞台	-10.4194
抑制	-10.4197
懒	-10.4197
re	-10.4202
融入	-10.4203
不错的	-10.4205
潘	-10.4206
你看	-10.4209
粮食	-10.421
时机	-10.4213
黄色	-10.4213
两位	-10.4216
如同	-10.4217
市场上	-10.4218
意思	-10.4221
豆腐	-10.4224
股份有限公司	-10.4226
训	-10.4226
34	-10.4231
神秘	-10.424
演讲	-10.4248
尺	-10.4248
尚未	-10.4251
一百	-10.4251
我现在	-10.4252
辆	-10.4254
笔记	-10.4256
系统的	-10.4257
的原则	-10.4259
不起	-10.426
罐	-10.4262
质疑	-10.4264
规	-10.4265
警方	-10.4266
江南	-10.4268
呵呵	-10.4271
这个人	-10.4273
一代	-10.4274
总经理	-10.4276
激动	-10.4277
心脏	-10.4278
只好	-10.4279
冒	-10.4281
放大	-10.4281
权力	-10.4282
晶	-10.4286
&	-10.4286
标签	-10.4289
寸	-10.4292
得以	-10.4297
终端	-10.43
边缘	-10.43
为人	-10.4301
笔者	-10.4302
从小	-10.4306
验	-10.4309
园区	-10.4311
经历了	-10.4312
牺牲	-10.4318
看似	-10.4319
体重	-10.4322
材质	-10.4323
经济学	-10.4333
的基础	-10.4335
没办法	-10.4336
扶贫	-10.4338
带来了	-10.4338
一口	-10.4338
激光	-10.4341
养成	-10.4353
昭	-10.4355
刚开始	-10.4357
肿瘤	-10.436
旁边	-10.4361
in	-10.4361
5.	-10.4364
映	-10.4379
开车	-10.4382
纤维	-10.4386
砍	-10.4388
买的	-10.439
婆婆	-10.439
期限	-10.439
电源	-10.4391
竞争力	-10.4396
因为你	-10.4397
发现了	-10.4398
纠纷	-10.4401
精品	-10.4401
歌手	-10.4404
全程	-10.4413
俱乐部	-10.4415
告知	-10.4418
关闭	-10.4426
初步	-10.4426
不易	-10.4428
秩序	-10.4434
会被	-10.4435
肚子	-10.4436
牵	-10.4437
资讯	-10.4438
纵	-10.4439
要素	-10.4443
订	-10.4444
偶	-10.4447
祭	-10.4448
节日	-10.4452
韦	-10.4453
日前	-10.4455
美好的	-10.4455
极其	-10.4456
津	-10.446
弃	-10.4461
联赛	-10.4465
才知道	-10.4471
安徽	-10.4473
个小时	-10.4475
癌症	-10.4476
精华	-10.4479
耶	-10.4481
他就	-10.4481
控股	-10.4486
艰难	-10.4489
做一个	-10.4492
试图	-10.4492
了不少	-10.4492
专项	-10.4493
频繁	-10.4497
比如说	-10.4498
这种情况	-10.4503
合法	-10.4504
州市	-10.4505
的第一	-10.4505
办学	-10.4515
的优势	-10.452
臂	-10.4521
远远	-10.4521
唇	-10.4522
提出了	-10.4524
和他	-10.4525
丸	-10.4536
兔	-10.4537
裙	-10.4537
就不会	-10.4544
书画	-10.4545
单元	-10.4548
矣	-10.4554
引领	-10.4554
要知道	-10.4561
只需要	-10.4564
全体	-10.4565
坚决	-10.4566
职场	-10.4573
服用	-10.4577
蛋白	-10.4579
卓	-10.458
爷爷	-10.458
800	-10.4581
凝	-10.4585
页面	-10.4586
阿里	-10.4587
官员	-10.459
取得了	-10.4591
刊	-10.4595
重量	-10.4595
式的	-10.4597
增加了	-10.4603
我们就	-10.4603
毕业生	-10.4604
合并	-10.4604
验证	-10.4605
尽可能	-10.4606
2006	-10.4611
常见的	-10.4614
的知识	-10.4615
白天	-10.4616
缓	-10.4617
相似	-10.4623
都不会	-10.4628
气候	-10.4632
缴纳	-10.4637
的存在	-10.4638
解决问题	-10.4639
借助	-10.4641
图书	-10.4642
参观	-10.4643
发明	-10.4647
客服	-10.4648
塑	-10.4649
帮你	-10.4656
碰到	-10.4658
普及	-10.4659
短信	-10.4661
一根	-10.4663
桶	-10.4669
小朋友	-10.467
复制	-10.4671
营造	-10.4671
目录	-10.4672
难题	-10.4673
踏	-10.4673
or	-10.4676
2004	-10.468
探讨	-10.4682
仪式	-10.4687
鼠	-10.4688
算法	-10.4689
途	-10.4693
晴	-10.4694
你想	-10.4696
疫苗	-10.4698
规定的	-10.47
唯一的	-10.4704
公务员	-10.4704
给我们	-10.4708
某种	-10.4709
精心	-10.4722
上午	-10.4723
转变	-10.4725
糊	-10.4727
的经验	-10.4731
贫	-10.4733
切实	-10.4734
的风险	-10.4734
法规	-10.4737
从未	-10.4738
讲究	-10.4742
向前	-10.4745
科学家	-10.4746
怨	-10.4748
手指	-10.475
采访	-10.4756
30%	-10.4759
篮球	-10.4764
qq	-10.4768
一群	-10.477
解读	-10.4772
蒋	-10.4778
琳	-10.4781
说法	-10.4784
不论	-10.4786
清新	-10.4786
幸运	-10.4787
认同	-10.4787
回头	-10.4789
48	-10.4795
落后	-10.4796
是要	-10.4799
每月	-10.48
对他	-10.4801
寻求	-10.4802
公寓	-10.4803
信仰	-10.4803
仲	-10.4806
咸	-10.481
布置	-10.481
婆	-10.4811
荡	-10.4815
无需	-10.4816
社会主义	-10.4817
还有一个	-10.4818
幻	-10.4819
饮料	-10.482
天空	-10.4821
制造业	-10.4823
忧	-10.4824
现状	-10.4824
疗法	-10.4828
飞行	-10.4831
分别为	-10.4832
询问	-10.4834
的感情	-10.4834
西班牙	-10.4834
还不	-10.4836
不愿	-10.4837
创始人	-10.4838
见过	-10.484
回收	-10.484
蓝色	-10.4842
延长	-10.4842
这份	-10.4854
再说	-10.4855
妮	-10.4856
福建	-10.4858
但他	-10.4861
五个	-10.4864
潜力	-10.4864
便利	-10.4865
虚拟	-10.4865
危害	-10.4867
st	-10.4867
标志	-10.4867
筒	-10.4871
才有	-10.4876
抛	-10.4877
第六	-10.488
光明	-10.488
俄	-10.4881
辈	-10.4891
与其	-10.4891
於	-10.4892
前景	-10.4893
的照片	-10.4896
罚	-10.4898
ta	-10.4908
一面	-10.4908
伴	-10.4912
蒜	-10.4912
爱你	-10.4917
买房	-10.4918
口味	-10.4919
不在	-10.4921
洗净	-10.4921
03	-10.4923
氧	-10.4924
意识到	-10.4926
以免	-10.493
总会	-10.493
广东省	-10.4931
夏季	-10.4931
烫	-10.4932
耗	-10.4932
缴	-10.4934
传奇	-10.4938
挑选	-10.4938
执法	-10.4939
驾	-10.494
就已经	-10.4941
简直	-10.4943
做过	-10.4944
冰箱	-10.4946
坚	-10.4947
喝酒	-10.4948
午	-10.4949
各级	-10.495
化妆	-10.4951
还需要	-10.4951
不仅仅是	-10.4952
吃的	-10.4953
截	-10.4953
作者是	-10.4954
淘	-10.4955
海南	-10.4957
十三	-10.4958
不宜	-10.4961
很多人都	-10.4963
过去了	-10.4963
第二次	-10.4965
模块	-10.4965
内的	-10.4967
我很	-10.4968
提问	-10.4973
两者	-10.498
初期	-10.4981
只要你	-10.4985
帖	-10.4987
著名的	-10.4987
祖国	-10.4988
长得	-10.4988
真诚	-10.4993
惹	-10.4994
的思想	-10.4994
存储	-10.4996
走过	-10.4996
女孩子	-10.4997
预约	-10.5
教室	-10.5002
在那里	-10.5003
幻想	-10.5003
进展	-10.5004
频率	-10.5009
纳入	-10.5014
前进	-10.5016
爷	-10.5018
地上	-10.5019
都说	-10.502
突	-10.5022
两天	-10.5025
寂寞	-10.5026
也将	-10.5027
事务	-10.5029
浦	-10.503
激	-10.5034
筑	-10.5041
忽然	-10.5042
不妨	-10.5042
队友	-10.5049
莎	-10.505
并未	-10.5052
语音	-10.5052
无比	-10.5056
适	-10.5057
常规	-10.5059
跃	-10.5063
树立	-10.5063
丧	-10.5065
备案	-10.507
上方	-10.5079
带有	-10.5079
旗下	-10.508
躲	-10.5081
姿	-10.5083
不存在	-10.5084
紧急	-10.5087
我还是	-10.5094
隔离	-10.5095
星期	-10.5099
缺少	-10.5103
梨	-10.5105
的生命	-10.5108
人气	-10.5118
底部	-10.512
的方向	-10.5122
的消息	-10.5123
第三方	-10.5131
变更	-10.5132
发起	-10.5133
烈	-10.5135
丘	-10.5136
职位	-10.5146
an	-10.5148
恐怕	-10.515
99	-10.515
二人	-10.515
物业	-10.5152
会导致	-10.5154
将在	-10.5155
治愈	-10.5155
揉	-10.5158
打工	-10.5158
主管	-10.5159
不一定	-10.5159
渐	-10.516
倒入	-10.5162
茶叶	-10.5162
密码	-10.5168
驱	-10.5169
的专业	-10.5172
120	-10.5174
生成	-10.5177
我相信	-10.5179
公民	-10.518
涌	-10.5181
人民政府	-10.5201
担保	-10.5202
出来了	-10.5206
37	-10.5206
二次	-10.5208
抄	-10.5208
的服务	-10.521
城镇	-10.5213
像是	-10.5213
it	-10.5214
上海市	-10.5215
勇敢	-10.5215
感觉到	-10.5221
对应	-10.5221
县城	-10.5222
翔	-10.5231
看上去	-10.5237
千万不要	-10.5238
39	-10.5238
不像	-10.5239
自从	-10.5244
的技术	-10.5244
趣	-10.5245
人事	-10.5247
这两	-10.5247
学期	-10.5248
里面的	-10.5248
民众	-10.5249
一笔	-10.5252
高铁	-10.5252
幅度	-10.5255
替代	-10.5255
荷	-10.5256
弟	-10.5257
逢	-10.5258
这点	-10.5261
行驶	-10.5262
培育	-10.5263
社保	-10.5263
看好	-10.5263
扯	-10.5264
住了	-10.5264
不满	-10.5265
上网	-10.5267
泵	-10.5267
错过	-10.5267
考虑到	-10.5271
钙	-10.5273
高温	-10.5275
不超过	-10.5281
产生了	-10.5281
谨慎	-10.5281
是可以	-10.5283
霸	-10.5284
55	-10.5284
财经	-10.5288
山区	-10.5289
口碑	-10.5293
赔	-10.5293
好处	-10.5293
沃	-10.5296
单纯	-10.5298
邻	-10.5299
阻	-10.5301
坚强	-10.5303
透明	-10.5304
就被	-10.5304
内涵	-10.5305
150	-10.5306
卫星	-10.5308
这条	-10.5309
鹤	-10.531
职责	-10.531
▁3	-10.5312
陕西	-10.5318
示	-10.5318
制品	-10.5319
葡萄	-10.5321
厦门	-10.5321
生理	-10.5324
外部	-10.5325
分开	-10.5328
颇	-10.5333
的心态	-10.5334
祸	-10.5335
情节	-10.5338
报警	-10.5338
中介	-10.534
手中	-10.5342
生命的	-10.5343
龙头	-10.5343
有一	-10.5345
考验	-10.5345
贼	-10.5345
万物	-10.5349
说我	-10.535
为自己	-10.5352
善于	-10.5362
产能	-10.5363
家乡	-10.5364
特朗普	-10.537
赛季	-10.537
大人	-10.5372
不对	-10.5373
温馨	-10.5373
花费	-10.5374
的那种	-10.5374
头部	-10.5375
第十	-10.5378
的心情	-10.538
保险公司	-10.5381
争议	-10.5382
是从	-10.5382
了一些	-10.5389
挖掘	-10.5389
六十	-10.539
长沙	-10.539
同行	-10.5393
一辆	-10.5394
志愿者	-10.5396
钢铁	-10.5397
返回	-10.5399
电梯	-10.5399
题材	-10.5406
图像	-10.5407
多年的	-10.5407
豪华	-10.5408
奏	-10.5409
指定	-10.541
标题	-10.5412
疑问	-10.5415
结论	-10.5416
污	-10.5416
实体	-10.542
今天的	-10.5421
交给	-10.5422
签约	-10.5425
主持人	-10.5426
没事	-10.5427
姚	-10.543
):	-10.5435
爹	-10.5435
夫人	-10.5436
为例	-10.5437
抬	-10.5441
堵	-10.5444
口腔	-10.5444
的爱情	-10.5445
新加坡	-10.5446
少数	-10.5448
出售	-10.5449
精英	-10.5451
到处	-10.5454
商场	-10.5454
观看	-10.5454
过多	-10.5456
囊	-10.546
氧化	-10.5462
三种	-10.5463
海军	-10.5464
讨	-10.5465
月底	-10.5466
婴儿	-10.5469
国家级	-10.5469
茂	-10.5469
专注	-10.547
斗争	-10.547
2021	-10.5471
央行	-10.5471
消毒	-10.5475
乡镇	-10.5476
有一次	-10.5478
得多	-10.5482
体检	-10.5483
最多的	-10.5489
转向	-10.5491
等地	-10.5492
年后	-10.5493
通讯	-10.5494
泰国	-10.5494
激发	-10.5496
明明	-10.5497
自动化	-10.5497
之时	-10.5503
当时的	-10.5503
众人	-10.5504
建造	-10.5506
安静	-10.5507
去找	-10.5508
郡	-10.5518
美联储	-10.5518
交往	-10.552
合理的	-10.552
谓	-10.5524
养殖	-10.5524
命令	-10.5528
实时	-10.5529
眼镜	-10.553
就好了	-10.553
跟你	-10.5531
般的	-10.5542
暴力	-10.5544
门槛	-10.5545
寨	-10.5546
主张	-10.5549
最早	-10.5553
注定	-10.5554
渔	-10.5554
还好	-10.5554
就可以了	-10.5555
大力	-10.5557
书中	-10.556
逸	-10.5562
▁2	-10.5564
团结	-10.5565
100%	-10.5566
悬	-10.5569
的成绩	-10.557
径	-10.5572
一个小	-10.5572
郑州	-10.5575
称号	-10.5575
车主	-10.5578
的功能	-10.5578
我妈	-10.5579
口感	-10.558
辉煌	-10.5581
明年	-10.5585
知识点	-10.5587
匹配	-10.5592
发布的	-10.5593
摄	-10.5595
热量	-10.5601
优雅	-10.5603
的心理	-10.5604
崇	-10.5605
是否有	-10.5609
抵	-10.5609
新人	-10.5611
产业链	-10.5613
做得	-10.5613
肯	-10.5613
都被	-10.5618
兆	-10.562
竞	-10.5626
的味道	-10.5633
en	-10.5636
起点	-10.5637
更好地	-10.5639
的压力	-10.5642
不断的	-10.5644
达到了	-10.5645
硕	-10.5652
的空间	-10.5653
卖家	-10.5659
陆续	-10.5663
不高	-10.5663
其余	-10.5666
教育部	-10.5667
很喜欢	-10.5672
伤心	-10.5679
踢	-10.5683
无力	-10.5683
壶	-10.5684
大致	-10.5687
6.	-10.5696
2003	-10.5697
的时代	-10.5698
几十	-10.5701
版权	-10.5703
荣获	-10.5703
电器	-10.5704
解答	-10.5704
体制	-10.5708
毁	-10.571
把你	-10.571
一切都	-10.5711
瓷	-10.5712
深化	-10.5719
只不过	-10.572
删除	-10.5725
就把	-10.5725
遭到	-10.5726
据了解	-10.5727
真实的	-10.5728
越多	-10.5731
这部	-10.5735
江西	-10.5739
季节	-10.574
截止	-10.5741
的概念	-10.5741
年初	-10.5743
番	-10.5744
长安	-10.5744
供应链	-10.5745
眼泪	-10.5746
客厅	-10.5747
的做法	-10.5748
假设	-10.5749
4%	-10.5751
碳	-10.5751
代替	-10.5751
假期	-10.5753
根本不	-10.5756
高手	-10.576
蛋糕	-10.5764
私人	-10.5769
非常的	-10.5771
自身的	-10.578
种种	-10.5782
山东省	-10.5782
牛肉	-10.5783
6%	-10.5784
幼儿	-10.5786
沾	-10.5787
密度	-10.5787
坝	-10.579
过后	-10.5791
澳大利亚	-10.5791
该公司	-10.5792
功率	-10.5793
娶	-10.5793
善良	-10.5794
袭	-10.5794
忍不住	-10.5795
两大	-10.5796
促	-10.5797
被动	-10.5797
是怎么	-10.5797
依托	-10.5817
可以看到	-10.5818
热闹	-10.5821
有多少	-10.5823
极为	-10.5831
应急	-10.5832
敲	-10.5834
这段	-10.5834
造成的	-10.5837
点赞	-10.5838
谈判	-10.5846
副主任	-10.5852
哀	-10.5852
的老	-10.5853
防治	-10.5857
的社会	-10.5861
al	-10.5868
招标	-10.5868
爆炸	-10.587
运气	-10.5871
出于	-10.5873
服务器	-10.5874
你能	-10.5874
热门	-10.5876
加热	-10.5877
已经是	-10.5877
十九	-10.588
聚集	-10.5883
葬	-10.5883
老百姓	-10.5883
妃	-10.5884
一样的	-10.5889
日益	-10.5889
打了	-10.589
两侧	-10.5892
十六	-10.5895
其他的	-10.5896
成交量	-10.5896
大事	-10.5898
十一	-10.59
朝鲜	-10.5906
三天	-10.5907
最初	-10.5907
伞	-10.5909
伙伴	-10.5909
之上	-10.5909
通用	-10.591
鼻子	-10.5911
▁你	-10.5911
翠	-10.5913
框	-10.5913
每周	-10.5914
得很	-10.5914
玲	-10.5914
援	-10.5914
或者说	-10.5916
美味	-10.5918
眼前	-10.5919
我真的	-10.5923
严重的	-10.5923
建立了	-10.5923
我喜欢	-10.5925
潜	-10.5926
年来	-10.5927
留在	-10.5927
耳朵	-10.5928
诗歌	-10.5933
报价	-10.594
模糊	-10.5945
什么都	-10.5946
不仅是	-10.5948
什么的	-10.5953
其他人	-10.5954
一件事	-10.5957
后者	-10.5958
纠结	-10.5959
专科	-10.596
当我	-10.5962
等人	-10.5969
几百	-10.5973
这不是	-10.5979
开设	-10.5981
阀	-10.5985
都知道	-10.599
疲劳	-10.599
界面	-10.5992
总部	-10.5995
纽约	-10.5999
然后再	-10.5999
你在	-10.6001
止损	-10.6001
这样一个	-10.6003
同样的	-10.6003
锐	-10.6005
球迷	-10.6006
连锁	-10.6007
坊	-10.6008
区间	-10.6011
授	-10.6011
是没有	-10.6016
的速度	-10.6023
选用	-10.6026
斌	-10.6028
籍	-10.6029
校区	-10.603
果然	-10.6031
就是一个	-10.6033
有一定	-10.6036
市政府	-10.6036
僧	-10.6039
普通人	-10.604
丙	-10.6042
开通	-10.6043
说什么	-10.6043
正如	-10.6047
梯	-10.6048
伸	-10.605
也都	-10.605
传媒	-10.605
去世	-10.6051
缺点	-10.6057
把他	-10.6064
绘画	-10.6067
风水	-10.607
繁	-10.607
与此同时	-10.607
助力	-10.6071
长久	-10.6071
畅	-10.6073
猎	-10.6073
引入	-10.6073
这样做	-10.6076
营收	-10.6077
得了	-10.6077
很多时候	-10.6078
点评	-10.6086
难过	-10.6087
可以选择	-10.6088
平面	-10.6099
在意	-10.61
讲话	-10.6103
天使	-10.6105
涨停	-10.6107
花钱	-10.611
APP	-10.6112
的习惯	-10.6116
看你	-10.6118
要去	-10.6119
鑫	-10.6119
催	-10.6122
看不到	-10.6123
对抗	-10.6125
人格	-10.6126
总裁	-10.6126
人生的	-10.6131
合成	-10.6131
绳	-10.6132
更大的	-10.6134
08	-10.6135
券商	-10.6135
高速公路	-10.6135
吐槽	-10.6141
薪	-10.6142
地区的	-10.6143
进而	-10.6146
的观点	-10.6149
防守	-10.615
家中	-10.6152
专题	-10.6156
闷	-10.6159
遵守	-10.6162
他也	-10.6167
适宜	-10.6168
举报	-10.6169
细菌	-10.6171
结束后	-10.6171
讲述	-10.6172
土壤	-10.6173
发达	-10.6173
领取	-10.6175
但也	-10.618
80%	-10.6181
书籍	-10.6183
跟踪	-10.6185
主导	-10.6185
无聊	-10.6186
账号	-10.6187
文物	-10.6188
暂	-10.6189
俱	-10.6189
门店	-10.6191
喂	-10.6192
束	-10.6193
吓	-10.6193
撑	-10.6193
无关	-10.6196
数据库	-10.6207
的标准	-10.621
打破	-10.6211
的一切	-10.6211
栋	-10.6213
影响力	-10.6216
捏	-10.6218
典型的	-10.622
不是很	-10.6221
我们都	-10.6221
公安	-10.6222
▁中国	-10.6222
我没有	-10.6223
利息	-10.6227
对着	-10.623
设有	-10.6235
膏	-10.6235
女主	-10.6239
不应该	-10.6239
晕	-10.6239
捧	-10.6243
入口	-10.6244
常用	-10.6244
非洲	-10.6244
基础设施	-10.6245
学生的	-10.6248
特定	-10.6248
放到	-10.6248
化妆品	-10.6251
在家里	-10.6252
学位	-10.6253
仪器	-10.6253
几种	-10.6255
斩	-10.6257
有一定的	-10.6258
游泳	-10.6259
颗	-10.6259
线条	-10.626
是对	-10.6261
小白	-10.6261
停车	-10.6265
会让	-10.6266
不安	-10.6266
立体	-10.6268
富有	-10.6268
十二章	-10.627
不爱	-10.6274
一台	-10.6275
。4	-10.6276
词汇	-10.6276
人民法院	-10.6282
延伸	-10.6283
征收	-10.6284
赛事	-10.6287
妹子	-10.6287
投诉	-10.6289
芯	-10.6289
斯特	-10.6292
完整的	-10.6292
候	-10.6292
欧美	-10.6294
给人	-10.6299
诸多	-10.6303
8%	-10.6305
75	-10.6306
集成	-10.6306
精致	-10.6308
面膜	-10.6309
函	-10.631
的各种	-10.6311
还得	-10.6313
志愿	-10.6315
长度	-10.6319
屈	-10.632
境界	-10.6323
排除	-10.6324
写了	-10.6328
长城	-10.6329
第七	-10.6329
孕妇	-10.633
赐	-10.6335
生动	-10.6338
轩	-10.634
独特	-10.6356
地板	-10.6359
长的	-10.6359
户外	-10.6365
黎	-10.6367
十大	-10.6367
邮	-10.6367
而且还	-10.6368
找个	-10.6368
三次	-10.6371
供给	-10.6372
营业	-10.6373
吵	-10.6374
自觉	-10.6374
开拓	-10.6378
后果	-10.6378
1%	-10.6384
这里的	-10.6385
签证	-10.6386
展览	-10.6386
高层	-10.639
爱好	-10.6391
加以	-10.6391
了许多	-10.6396
符	-10.6396
不清楚	-10.6397
8.	-10.6404
捷	-10.6407
吞	-10.6412
万股	-10.6412
赢得	-10.6415
什	-10.6419
信息化	-10.6425
的角色	-10.6425
瞎	-10.6427
一日	-10.6431
颈	-10.6432
动漫	-10.6433
竞赛	-10.6434
面包	-10.6434
解除	-10.6435
反思	-10.6436
说道	-10.6437
我一直	-10.6442
ch	-10.6443
当成	-10.6443
二级	-10.6444
释	-10.6444
未能	-10.6446
激素	-10.6446
弟子	-10.645
十几	-10.6451
好评	-10.6453
老年人	-10.6454
势力	-10.6454
代谢	-10.6458
看书	-10.6459
一股	-10.646
饱	-10.646
的爱	-10.6461
储	-10.6462
柯	-10.6463
战士	-10.6466
种子	-10.6466
完美的	-10.6466
赠	-10.6467
当我们	-10.6472
7.	-10.6474
咋	-10.6475
所有人	-10.6475
凤凰	-10.6478
着急	-10.6483
脾气	-10.6487
只需	-10.6487
46	-10.6488
再来	-10.6491
42	-10.6493
三个月	-10.6496
夸	-10.6497
火车	-10.65
撕	-10.6502
携带	-10.6502
艺术家	-10.6504
还是很	-10.6506
所以说	-10.6508
不成	-10.6509
协同	-10.6509
各国	-10.6511
笼	-10.6512
转化	-10.6512
如果说	-10.6513
埃	-10.6515
送给	-10.6518
织	-10.6523
锡	-10.6526
江湖	-10.6531
要把	-10.6531
做人	-10.6532
幸	-10.6533
占据	-10.6534
扮演	-10.6535
靠近	-10.6535
统治	-10.6536
明显的	-10.654
某某	-10.6541
盗	-10.6547
所说的	-10.655
景点	-10.6554
入学	-10.6556
07	-10.6559
较多	-10.656
辣椒	-10.6564
正规	-10.6565
中共	-10.6565
05	-10.657
多久	-10.6572
产生的	-10.6575
频道	-10.6576
植	-10.6577
顶级	-10.6579
可以看出	-10.6581
佐	-10.6582
队员	-10.6587
小型	-10.6587
仰	-10.659
阴阳	-10.6592
哲	-10.6598
递	-10.6598
分解	-10.66
不断地	-10.6601
说出	-10.6601
蜀	-10.6603
倒是	-10.6606
小小的	-10.6606
用途	-10.6607
一阵	-10.661
面部	-10.6611
阅	-10.6612
之人	-10.6614
不清	-10.6615
过去的	-10.6616
他还	-10.6617
穆	-10.6618
瑶	-10.6618
除非	-10.6621
这本书	-10.6621
说说	-10.6622
骄傲	-10.6626
相结合	-10.6626
老师的	-10.6627
税务	-10.6627
储备	-10.663
古人	-10.663
沪	-10.6633
昂	-10.6635
模仿	-10.6635
;(	-10.6635
搭建	-10.6637
起床	-10.6638
我不知道	-10.664
少了	-10.664
之道	-10.6641
的部分	-10.6641
接待	-10.6642
了自己的	-10.6645
开学	-10.6647
若是	-10.665
变动	-10.6651
年间	-10.6653
医师	-10.6655
市值	-10.6657
高位	-10.6658
真相	-10.6659
一眼	-10.666
困扰	-10.6663
节能	-10.6666
之际	-10.6668
内容简介	-10.6668
的所有	-10.6671
存款	-10.6674
处置	-10.6677
了解到	-10.668
一身	-10.668
存在的	-10.668
之内	-10.6681
科普	-10.6682
种类	-10.6683
我又	-10.6684
说起	-10.6685
播放	-10.6688
竖	-10.6688
比较好	-10.6688
运动员	-10.6689
班级	-10.6694
糖尿病	-10.6698
耀	-10.67
塑造	-10.67
学校的	-10.6704
有过	-10.6706
介入	-10.6706
凑	-10.6706
此后	-10.6708
企业家	-10.6708
很久	-10.671
战胜	-10.6712
白酒	-10.6712
第一时间	-10.6712
好吃	-10.6712
会觉得	-10.6715
这边	-10.6718
的投资	-10.6722
违规	-10.6724
跑步	-10.6727
结算	-10.6735
是一家	-10.6735
帝国	-10.6735
千年	-10.6737
组建	-10.6738
时代的	-10.6738
摔	-10.6742
化的	-10.6743
据悉	-10.6743
沉默	-10.6744
指南	-10.6748
若干	-10.6749
物资	-10.6751
咱	-10.6752
欢乐	-10.6754
童年	-10.6754
爱好者	-10.6758
的支持	-10.6759
等于	-10.6761
市区	-10.6764
旭	-10.6764
隐藏	-10.6767
唱歌	-10.677
妇	-10.677
加班	-10.6775
赋	-10.6777
有关部门	-10.6786
信用卡	-10.6786
摆脱	-10.679
不变	-10.679
干扰	-10.6793
十七	-10.6798
仔	-10.6799
我和	-10.6801
能在	-10.6801
班主任	-10.6804
不幸	-10.6806
重组	-10.6808
养老	-10.6812
积分	-10.6816
渗透	-10.6818
牢	-10.6818
会上	-10.682
出的	-10.6823
江苏省	-10.6823
都需要	-10.6824
进程	-10.6826
全力	-10.6827
崔	-10.6827
参加了	-10.6829
叉	-10.683
咒	-10.683
远程	-10.6836
风光	-10.6837
党的	-10.6838
最高的	-10.6839
88	-10.684
金融机构	-10.6841
早在	-10.6841
漫	-10.6843
的回答	-10.6848
头脑	-10.6851
一杯	-10.6852
多吃	-10.6856
新能源	-10.6856
盲	-10.6861
电路	-10.6861
要看	-10.6861
信托	-10.6862
甩	-10.6865
你还	-10.6866
罗马	-10.6867
的衣服	-10.6868
区块链	-10.6872
额外	-10.6873
芽	-10.6877
ing	-10.6877
弘	-10.688
接收	-10.688
关联	-10.6885
小心	-10.6885
厨	-10.6886
贫困	-10.6886
较低	-10.689
以往	-10.689
救援	-10.6895
可用	-10.6899
娱乐圈	-10.6899
过敏	-10.6899
况	-10.6905
一首	-10.6907
遵循	-10.6908
一体化	-10.691
天生	-10.6911
监督管理	-10.6913
暑假	-10.6914
回顾	-10.6915
抚	-10.6916
以便	-10.6917
轻易	-10.6917
图案	-10.692
的说法	-10.6922
感兴趣	-10.6924
下班	-10.6927
上有	-10.6928
热水	-10.6933
灯光	-10.6933
王子	-10.6935
郁	-10.6936
许多人	-10.6938
美的	-10.6938
朋友们	-10.694
的经历	-10.6942
送到	-10.6942
梗	-10.6942
期望	-10.6942
罢了	-10.6945
啤酒	-10.6946
对其	-10.6949
巡	-10.6953
复杂的	-10.6955
民生	-10.6955
去除	-10.696
脱离	-10.696
周年	-10.6977
偶像	-10.6979
燃烧	-10.698
大连	-10.6983
下次	-10.6984
获奖	-10.6991
节约	-10.6994
宴	-10.6996
师生	-10.6997
女神	-10.6998
容量	-10.7005
希望能	-10.7005
58	-10.7006
月亮	-10.7009
充满了	-10.7012
东南	-10.7015
如果不	-10.7016
极端	-10.7017
不受	-10.7019
美国的	-10.7023
单一	-10.7025
蜂蜜	-10.7028
诊疗	-10.7028
靖	-10.7029
判决	-10.703
法师	-10.7033
步行	-10.7035
均线	-10.7036
响应	-10.7036
发射	-10.7042
逛	-10.7043
形状	-10.7043
扩展	-10.7046
书记	-10.7047
更容易	-10.7048
细腻	-10.7051
神奇	-10.7053
的城市	-10.7054
不利	-10.7054
别墅	-10.7055
甚至是	-10.7056
伪	-10.7064
盟	-10.7069
嗯	-10.7073
刚才	-10.7075
北大	-10.7075
资本市场	-10.7076
箭	-10.7077
的身份	-10.708
套路	-10.708
氢	-10.7081
为大家	-10.7081
能让	-10.7081
有利	-10.7084
一堆	-10.7086
的看法	-10.7086
亮点	-10.7088
密切	-10.7089
济南	-10.7091
走路	-10.7092
因为他们	-10.7092
火箭	-10.7092
清除	-10.7093
腻	-10.7094
终身	-10.7095
缺陷	-10.7097
先进的	-10.7097
刚好	-10.7098
节省	-10.7098
采用了	-10.71
担	-10.71
足以	-10.7101
世界杯	-10.7102
地质	-10.7102
友好	-10.7111
从来没有	-10.7111
体质	-10.7112
在他	-10.7112
好奇	-10.7114
境外	-10.7116
抖音	-10.7117
几个月	-10.7118
少许	-10.712
生病	-10.7122
架构	-10.7125
强制	-10.7125
无线	-10.7125
冷静	-10.7125
西藏	-10.7127
单身	-10.7129
蹲	-10.7131
场合	-10.7133
的情绪	-10.7134
暴露	-10.7137
出席	-10.7143
一个个	-10.7149
视野	-10.7149
2002	-10.7149
洒	-10.7152
戈	-10.7152
乘客	-10.7152
生死	-10.7154
向下	-10.7156
广播	-10.716
狠	-10.7161
溜	-10.7162
两个月	-10.7164
卿	-10.7165
3%	-10.7167
园林	-10.7167
本周	-10.717
矮	-10.7175
出场	-10.7176
很小	-10.7178
7%	-10.7178
之心	-10.7182
是如何	-10.7182
流传	-10.7184
可爱的	-10.7186
本质	-10.7188
多少钱	-10.7192
的那个	-10.7193
函数	-10.7195
事业单位	-10.7198
巩固	-10.7198
仇	-10.7199
迟	-10.7201
#	-10.7203
发送	-10.7205
来自于	-10.7206
使用的	-10.7206
发动	-10.7209
格式	-10.7211
剩下的	-10.7217
总额	-10.7217
无疑	-10.722
编写	-10.7221
天赋	-10.7226
取决于	-10.723
贵州	-10.7231
三星	-10.7234
大地	-10.7237
一丝	-10.7239
间的	-10.724
筹	-10.7241
优点	-10.7243
ma	-10.7243
的眼睛	-10.7246
奉献	-10.7247
对不起	-10.7247
叹	-10.7251
了起来	-10.7251
充足	-10.7252
解决了	-10.7254
天堂	-10.7255
有趣	-10.7258
姑	-10.7259
规格	-10.726
度过	-10.726
例子	-10.7261
演技	-10.7261
事儿	-10.7263
河南省	-10.7266
回落	-10.7271
-1	-10.7276
再度	-10.7276
多年来	-10.7279
勇气	-10.728
而成	-10.728
就是这样	-10.7281
气温	-10.7284
09	-10.7285
有问题	-10.7288
在你	-10.7288
大海	-10.729
窑	-10.7292
知识产权	-10.7292
免疫	-10.7294
人在	-10.7295
玫瑰	-10.7295
经销商	-10.7298
帆	-10.7303
对接	-10.7304
节点	-10.7306
心思	-10.7306
花了	-10.7309
也不要	-10.7309
稀	-10.7309
上级	-10.7309
出血	-10.7309
著作	-10.731
一直是	-10.7311
钢琴	-10.7312
名为	-10.7316
我已经	-10.7316
出身	-10.7319
条款	-10.7319
崛起	-10.7321
男友	-10.7326
一对	-10.7326
不适合	-10.7327
之地	-10.7327
盈	-10.7328
的身体	-10.733
不过是	-10.7332
舆论	-10.7332
舰	-10.7336
年以来	-10.7337
听了	-10.7337
绝大多数	-10.734
65	-10.7343
:《	-10.7349
有序	-10.735
行走	-10.7351
禄	-10.7351
早晨	-10.7352
中期	-10.7352
开始了	-10.7354
对她	-10.7357
自杀	-10.7358
但是在	-10.7362
总有	-10.7363
傲	-10.7367
的比例	-10.7368
内外	-10.7369
手上	-10.737
首先要	-10.7371
明白了	-10.7372
姓名	-10.7373
统筹	-10.7375
沈阳	-10.7376
电气	-10.7376
加重	-10.7379
嫌	-10.7379
铭	-10.7381
早餐	-10.7381
千里	-10.7381
芬	-10.7382
等着	-10.7382
悲伤	-10.7383
魔法	-10.7384
毛病	-10.7384
激烈	-10.7386
的感受	-10.7386
不开	-10.7387
填写	-10.7389
入手	-10.7393
备考	-10.7394
捡	-10.7396
那边	-10.7397
滩	-10.7397
风雨	-10.7398
没错	-10.74
可怕	-10.7401
当作	-10.7401
的一部分	-10.7403
棚	-10.7406
予	-10.7409
泡沫	-10.7409
引起的	-10.741
标准化	-10.7411
受益	-10.7411
说实话	-10.7418
过年	-10.7422
投票	-10.7422
的颜色	-10.7422
开发商	-10.7423
开口	-10.7424
投放	-10.7425
战术	-10.7427
便捷	-10.7428
动手	-10.7431
有两个	-10.7431
察	-10.7431
撤	-10.7432
已经成为	-10.7434
95	-10.7436
宽松	-10.7438
价值观	-10.7438
国王	-10.7439
盾	-10.7441
我对	-10.7441
平稳	-10.7445
气息	-10.7448
提起	-10.7451
却又	-10.7456
开关	-10.7459
之前的	-10.7459
潮流	-10.7463
注意事项	-10.7464
跪	-10.7464
解析	-10.7464
试试	-10.747
这些人	-10.7471
9.	-10.7472
修正	-10.7475
枯	-10.7476
偷偷	-10.7481
新建	-10.7482
普通的	-10.7484
桩	-10.7485
正义	-10.7485
浸	-10.7486
越大	-10.749
相机	-10.7493
纱	-10.7494
桃花	-10.7495
投资人	-10.7499
并将	-10.75
注射	-10.7502
学到	-10.7503
也被	-10.7504
阻止	-10.7506
护士	-10.7511
过分	-10.7511
的不同	-10.7512
阿姨	-10.7512
恶心	-10.7516
贞	-10.7517
分散	-10.7517
的家庭	-10.7518
奇迹	-10.752
照明	-10.753
但却	-10.753
结束了	-10.7533
所以在	-10.7536
深圳市	-10.7536
个别	-10.7537
这是我	-10.7537
克服	-10.7538
肿	-10.7539
偶然	-10.754
彼	-10.754
师范大学	-10.754
简历	-10.7541
外出	-10.7544
ps	-10.7546
署	-10.7549
琪	-10.755
是不	-10.755
收取	-10.7554
收拾	-10.7555
整治	-10.7561
饿	-10.7562
高三	-10.7563
龟	-10.7565
委屈	-10.7567
改革开放	-10.7567
主观	-10.7568
垂直	-10.7569
看到的	-10.757
受理	-10.757
的股票	-10.7571
效益	-10.7572
不适	-10.7574
纪律	-10.7575
亲人	-10.7579
防范	-10.758
大胆	-10.7584
跟他	-10.7584
我们也	-10.7586
条例	-10.7588
杀人	-10.7588
来源于	-10.7589
处在	-10.7591
挣	-10.7594
实战	-10.7596
圆满	-10.7598
年内	-10.7598
款式	-10.7599
全是	-10.76
葛	-10.7601
滤	-10.7616
迎来	-10.7617
阵容	-10.7618
用力	-10.7618
越南	-10.7618
当今	-10.7624
印刷	-10.7625
身高	-10.7626
率先	-10.7628
盲目	-10.7629
的责任	-10.7631
际	-10.7631
06	-10.7633
住在	-10.7634
曲线	-10.7634
缓慢	-10.7639
到来	-10.7639
逗	-10.7639
旋转	-10.764
画家	-10.7644
犹	-10.7652
发酵	-10.7656
配备	-10.7658
队长	-10.7658
炖	-10.766
太子	-10.7667
文献	-10.7668
一同	-10.7668
为中心	-10.7669
篮	-10.7671
幸福的	-10.7673
真题	-10.7675
变革	-10.7675
拍卖	-10.7676
进度	-10.7676
创办	-10.768
通风	-10.768
全年	-10.7681
的地位	-10.7684
狗狗	-10.7685
每一次	-10.7685
答应	-10.7686
愉快	-10.7686
扶持	-10.7687
发生的	-10.7687
的理由	-10.7689
已成为	-10.7692
你也	-10.7693
日起	-10.7694
露出	-10.7694
萍	-10.7697
本土	-10.7704
过滤	-10.7706
潭	-10.771
场地	-10.771
叠	-10.7711
浙江省	-10.7712
磊	-10.7713
秘	-10.7714
43	-10.7715
你不	-10.7723
源于	-10.7727
巴西	-10.773
夜晚	-10.7737
愤怒	-10.7739
亲戚	-10.7739
聚会	-10.7744
才发现	-10.7745
有力	-10.7745
清单	-10.7746
的书	-10.7747
帮我	-10.775
决赛	-10.7751
喜爱	-10.7752
下列	-10.7753
披	-10.7753
农产品	-10.7753
昏	-10.7756
在乎	-10.7759
哄	-10.7759
巨头	-10.7762
描写	-10.7762
诈骗	-10.7764
排放	-10.7764
发生在	-10.7765
主播	-10.7766
蜂	-10.7767
即使是	-10.7767
助理	-10.7769
坪	-10.777
离不开	-10.777
on	-10.7771
在我们	-10.7772
毅	-10.7773
选举	-10.7774
一般来说	-10.7775
为您	-10.7778
独自	-10.7779
问题的	-10.778
02	-10.7781
执着	-10.7784
47	-10.7786
家电	-10.7786
欧盟	-10.7786
的教育	-10.7786
有许多	-10.7791
要点	-10.7795
媳妇	-10.7797
到最后	-10.7798
窄	-10.7799
700	-10.7801
授予	-10.7803
一个是	-10.7804
在学校	-10.7811
到底是	-10.7819
滞	-10.7821
外汇	-10.7824
高压	-10.7825
苑	-10.7826
物体	-10.7829
非常好	-10.7836
道歉	-10.7836
生涯	-10.7836
整改	-10.7838
后再	-10.7841
的环境	-10.7841
古典	-10.7842
一手	-10.7843
这对	-10.7844
机动车	-10.7846
少量	-10.7849
你觉得	-10.7849
日报	-10.7851
定价	-10.7851
辽	-10.7853
东京	-10.7853
还有很多	-10.7854
一顿	-10.7859
月初	-10.7861
皇后	-10.7862
七十	-10.7862
2%	-10.7862
具体的	-10.7865
的意见	-10.7866
就是要	-10.7867
卫生间	-10.787
典型	-10.7871
编程	-10.7871
科技有限公司	-10.7872
没法	-10.7874
就连	-10.7875
这项	-10.7875
的通知	-10.7877
视为	-10.7881
获利	-10.7882
巷	-10.7885
士兵	-10.7885
外科	-10.7887
出国	-10.7887
的游戏	-10.7888
面子	-10.7889
路径	-10.7891
大战	-10.7891
绿化	-10.7891
熟悉的	-10.7893
心疼	-10.7896
担当	-10.7897
年级	-10.7897
区分	-10.7902
从来不	-10.7904
似的	-10.7907
十四	-10.7913
原因是	-10.7915
绣	-10.7917
过得	-10.7926
04	-10.7929
巴黎	-10.793
公式	-10.7932
女友	-10.7937
毫米	-10.7946
那个时候	-10.7946
的努力	-10.7947
怡	-10.7947
乘坐	-10.7948
气象	-10.7948
2001	-10.795
负债	-10.795
立马	-10.7952
迷茫	-10.7956
伦敦	-10.7957
享有	-10.7958
入门	-10.796
下一个	-10.7961
爱的	-10.7962
网红	-10.7972
守护	-10.7974
党委	-10.7978
猴	-10.7978
拥抱	-10.7979
话说	-10.7979
卦	-10.7981
巢	-10.7981
号线	-10.7981
协商	-10.7982
表现出	-10.7983
划分	-10.7984
欲望	-10.7984
比较多	-10.7986
支付宝	-10.7986
情侣	-10.7991
葡萄酒	-10.7991
缸	-10.7991
听力	-10.7992
就知道	-10.7993
浴	-10.7995
身心	-10.7995
电动	-10.7996
发票	-10.8
毕	-10.8002
仅有	-10.8003
下行	-10.8003
弥补	-10.8009
教训	-10.8009
颗粒	-10.8012
路人	-10.8013
可谓	-10.8018
疯	-10.8022
结局	-10.8022
棍	-10.8024
总量	-10.8025
变形	-10.8026
相同的	-10.8026
全县	-10.8026
仗	-10.8027
前来	-10.8029
新手	-10.8031
一下子	-10.8031
用手	-10.8031
三是	-10.8032
的理解	-10.8034
慈善	-10.8036
书写	-10.8037
仅仅是	-10.8039
邻居	-10.8039
小镇	-10.8044
坤	-10.8045
的最大	-10.8045
匀	-10.8047
每天都	-10.8051
寿命	-10.8052
登陆	-10.8053
排队	-10.8056
汽	-10.8057
不堪	-10.8057
所以我们	-10.8058
绝望	-10.8061
手工	-10.8061
和我	-10.8063
他会	-10.8064
招商	-10.8064
无效	-10.8065
封闭	-10.8067
旅客	-10.8068
看得	-10.8068
承包	-10.8073
失眠	-10.8073
帐	-10.8078
嘉宾	-10.8078
这一切	-10.8078
混乱	-10.8081
洗澡	-10.8081
奈	-10.8083
奇怪	-10.8087
两条	-10.8089
溶	-10.809
貌	-10.809
正常的	-10.8092
就行	-10.8092
香味	-10.8093
使人	-10.8095
繁荣	-10.8098
捕	-10.8103
要做	-10.8104
姬	-10.8106
市委	-10.8106
收益率	-10.8109
车站	-10.811
难受	-10.8112
选项	-10.8114
如果您	-10.8114
创业板	-10.8114
直至	-10.8118
AI	-10.8118
担忧	-10.8119
不做	-10.8122
使其	-10.8125
放置	-10.8127
强烈的	-10.813
食材	-10.8132
们的	-10.8134
鞋子	-10.8139
出租	-10.8139
聚焦	-10.814
耳机	-10.8141
媒	-10.8144
就没	-10.8145
鉴	-10.8146
证实	-10.8148
交叉	-10.8149
均为	-10.815
法则	-10.8152
产权	-10.8152
地狱	-10.8153
学费	-10.8154
的权利	-10.8155
必定	-10.816
工作中	-10.8162
Z	-10.8164
杠杆	-10.8167
思念	-10.8172
的房子	-10.8173
家属	-10.8174
名校	-10.8177
社团	-10.8178
喜欢的	-10.8179
9%	-10.8181
零食	-10.8182
次数	-10.8182
外资	-10.8184
院长	-10.8189
原谅	-10.8197
除此之外	-10.8197
傅	-10.8198
管理工作	-10.8203
打印	-10.8206
何时	-10.8208
国民	-10.8209
土豆	-10.8212
战场	-10.8212
▁|	-10.8212
蒙古	-10.8213
因为它	-10.8219
贸	-10.8219
提取	-10.822
朴	-10.822
痴	-10.8226
名人	-10.8228
情形	-10.8231
没必要	-10.8231
举措	-10.8232
形容	-10.8234
)》	-10.8244
句子	-10.8244
头上	-10.8246
深受	-10.8248
儒	-10.8251
66	-10.8251
有趣的	-10.8252
而来	-10.8252
做个	-10.8253
谁都	-10.8253
我当时	-10.8254
为止	-10.8256
歪	-10.8257
漂	-10.8259
经费	-10.826
冲动	-10.8261
用药	-10.8264
国有	-10.8265
态势	-10.827
镜子	-10.8271
男主	-10.8272
艺人	-10.8274
伊朗	-10.8276
贡	-10.8277
住院	-10.8279
°	-10.828
介绍了	-10.8283
跟随	-10.8283
浓度	-10.8284
的水	-10.8286
净化	-10.8292
登录	-10.8292
但这	-10.8294
挨	-10.8295
澳洲	-10.8298
会影响	-10.8298
毕业后	-10.8302
就是在	-10.8303
称之为	-10.8303
遥	-10.8304
清水	-10.8312
伍	-10.8313
受到了	-10.8315
工作室	-10.8317
做成	-10.8317
山水	-10.8318
保温	-10.832
数字化	-10.832
等问题	-10.8322
纪录	-10.8325
又能	-10.8325
薇	-10.8331
请问	-10.8331
火锅	-10.8337
均衡	-10.8338
忽视	-10.8339
的形象	-10.834
钩	-10.834
那你	-10.8349
起步	-10.835
公斤	-10.835
向往	-10.8353
爱人	-10.8353
防水	-10.8357
研究中心	-10.8358
铃	-10.8358
幽默	-10.836
了我	-10.8361
多多	-10.8361
暨	-10.8363
一处	-10.8365
不已	-10.8365
确实是	-10.8366
简称	-10.8367
一流	-10.8367
城乡	-10.8368
接口	-10.8369
高血压	-10.8369
的手	-10.837
杠	-10.8371
安全生产	-10.8374
罩	-10.8381
气氛	-10.8383
扭	-10.8385
回国	-10.8385
就说	-10.8386
而又	-10.8387
梳理	-10.8387
电机	-10.8388
借鉴	-10.8389
友谊	-10.839
日内	-10.8391
恐	-10.8392
金刚	-10.8394
新生	-10.8395
新区	-10.8395
很不错	-10.8396
日记	-10.8396
的利益	-10.8397
持股	-10.84
兼职	-10.8402
在外	-10.8405
君子	-10.8405
南北	-10.8409
不让	-10.841
秋天	-10.8412
严肃	-10.8412
的区别	-10.8413
要说	-10.8413
的真实	-10.8414
的具体	-10.8414
阿尔	-10.8416
我个人	-10.8417
首都	-10.8417
密集	-10.8419
厕所	-10.8421
涉嫌	-10.8422
一双	-10.8428
这一次	-10.8428
草原	-10.8428
再去	-10.8429
器官	-10.8433
太过	-10.8435
坎	-10.8438
付款	-10.8439
申请人	-10.8443
裕	-10.8444
到这里	-10.8449
尸	-10.8449
在内的	-10.8452
电视台	-10.8454
一般的	-10.8456
使命	-10.8456
世界的	-10.8457
一小	-10.8458
神话	-10.8458
给出	-10.8458
辞职	-10.8458
常识	-10.8461
随机	-10.8463
转发	-10.8465
忽略	-10.8466
也许是	-10.8466
依照	-10.8469
医保	-10.8469
指示	-10.8469
清醒	-10.8471
遇到了	-10.8474
坠	-10.8474
高低	-10.8476
一体	-10.848
比起	-10.8481
实在是	-10.8482
滨	-10.8483
舱	-10.8483
大规模	-10.8485
细致	-10.8487
许可	-10.8489
否定	-10.849
殷	-10.8496
醇	-10.8498
新车	-10.8499
切成	-10.8501
枕	-10.8501
年开始	-10.8501
裸	-10.8504
老年	-10.8504
以此	-10.8507
传感器	-10.851
兮	-10.8511
必要的	-10.8511
枚	-10.8512
很可能	-10.8518
安心	-10.8521
形成的	-10.8521
辩	-10.8521
卧室	-10.8521
朵	-10.8523
分别是	-10.8523
醒来	-10.853
又要	-10.8531
给他们	-10.8534
98	-10.8536
户口	-10.8536
十一章	-10.8538
电信	-10.8538
大厦	-10.8538
孔子	-10.8538
离开了	-10.8547
研制	-10.8548
虚假	-10.8549
还真	-10.8549
淋	-10.855
她是	-10.8552
饶	-10.8554
所需	-10.8555
日上午	-10.8558
者的	-10.856
人均	-10.8563
气体	-10.8566
雁	-10.8567
伤口	-10.8568
口罩	-10.8568
蟹	-10.8572
浑	-10.8572
外表	-10.8572
流水	-10.8573
的父母	-10.8575
处处	-10.8577
内地	-10.8577
往往是	-10.8579
戏剧	-10.8581
漂亮的	-10.8583
占有	-10.8584
慢慢的	-10.8585
就去	-10.8588
防御	-10.8589
商城	-10.8591
监察	-10.8592
想去	-10.8593
90%	-10.8595
许可证	-10.8596
曾在	-10.8596
相遇	-10.8596
概率	-10.86
钥匙	-10.86
必备	-10.8601
一类	-10.8602
可怜	-10.8602
东部	-10.8607
配件	-10.8607
职能	-10.8611
说自己	-10.8611
不吃	-10.8612
知道自己	-10.8613
影像	-10.8613
紧密	-10.8614
专辑	-10.8615
小事	-10.8617
痘痘	-10.8617
煤炭	-10.8618
网页	-10.8618
一副	-10.8619
安全感	-10.862
短短	-10.862
骑士	-10.862
▁第一	-10.8621
确	-10.8624
拥	-10.8625
导航	-10.8627
大哥	-10.8627
遭受	-10.8627
要用	-10.8628
空中	-10.8628
越好	-10.8631
弓	-10.8631
挥	-10.8631
分析师	-10.8633
扎实	-10.8634
得出	-10.8635
会使	-10.8636
不肯	-10.8637
书面	-10.8639
特殊的	-10.8642
49	-10.8645
脆弱	-10.8646
中小企业	-10.8646
比赛中	-10.8649
特斯拉	-10.865
得分	-10.8654
服饰	-10.8655
汉语	-10.8656
脆	-10.8659
四川省	-10.866
风情	-10.8661
离子	-10.8663
辽宁	-10.8664
越高	-10.8665
拿下	-10.8667
发言	-10.8668
列车	-10.8669
报纸	-10.867
审判	-10.8671
薛	-10.8671
调控	-10.8676
虹	-10.8677
东风	-10.8678
极大	-10.8678
勇士	-10.8679
协作	-10.8681
眼中	-10.8682
得不到	-10.8682
第一步	-10.8685
崩溃	-10.8686
剩	-10.8686
41	-10.8688
也不知道	-10.8688
这些都是	-10.8691
平方公里	-10.8691
标的	-10.8699
涵	-10.8699
身为	-10.8699
吻	-10.8702
阻力	-10.8708
他们在	-10.8711
便于	-10.8717
的路	-10.8718
采集	-10.8718
董事会	-10.8719
素材	-10.872
伟大	-10.8723
甜蜜	-10.8723
地域	-10.8723
摩擦	-10.8724
分泌	-10.8726
生育	-10.8727
都不是	-10.8728
增值税	-10.873
健康的	-10.8731
拼命	-10.8731
演绎	-10.8732
提供的	-10.8734
坏了	-10.8737
住宿	-10.8738
自行车	-10.8738
删	-10.874
方针	-10.874
有必要	-10.874
图形	-10.8741
总监	-10.8743
就很	-10.8743
揭	-10.8744
另一种	-10.8744
不禁	-10.8746
绒	-10.8747
血压	-10.8748
传输	-10.8748
教程	-10.8749
刻意	-10.8751
出手	-10.8752
血糖	-10.8754
勿	-10.8757
办事	-10.8758
te	-10.876
约束	-10.8763
高峰	-10.8764
扫描	-10.8764
56	-10.8765
外地	-10.8768
合约	-10.8768
诱惑	-10.8768
入选	-10.8773
将于	-10.8774
肯定会	-10.878
我看	-10.8784
垄断	-10.8787
万美元	-10.8787
天才	-10.879
上门	-10.8791
感慨	-10.8793
co	-10.8796
惟	-10.8799
焊	-10.8805
美观	-10.8806
赋予	-10.881
迎接	-10.8815
阶	-10.8821
浇	-10.8823
行程	-10.8823
此类	-10.8824
还记得	-10.8824
对方的	-10.8826
新能源汽车	-10.8827
超出	-10.8827
买家	-10.8828
时常	-10.8831
的儿子	-10.8839
创立	-10.8841
水利	-10.8845
岂	-10.8845
能看到	-10.8845
硅	-10.8845
上看	-10.8848
熙	-10.8849
可以直接	-10.885
疫情防控	-10.8853
阳台	-10.8855
压缩	-10.8858
忽	-10.8858
同年	-10.886
齐全	-10.8863
大概是	-10.8866
会产生	-10.8866
闯	-10.8866
熬夜	-10.8871
酒精	-10.8872
而非	-10.8874
演唱	-10.888
经历过	-10.888
导弹	-10.8881
陌生	-10.8884
忙碌	-10.8884
邮件	-10.8885
冒险	-10.8885
从中	-10.8885
困境	-10.8886
情怀	-10.8887
不符合	-10.889
一幅	-10.8891
亲爱的	-10.8892
崩	-10.8892
谭	-10.8892
来看看	-10.8893
握	-10.8894
姐妹	-10.8894
谦	-10.8895
该如何	-10.89
下一步	-10.8901
度假	-10.8903
第八	-10.8903
爪	-10.8907
你知道	-10.8908
几十年	-10.8913
参赛	-10.8915
盘中	-10.8917
第二百	-10.8918
父母的	-10.8923
主管部门	-10.8924
罢	-10.8924
ro	-10.8927
大声	-10.8927
多人	-10.8929
耕	-10.8929
我们会	-10.8929
眠	-10.8931
外卖	-10.8934
螺	-10.8936
直线	-10.8937
上周	-10.8937
人人	-10.8938
聘	-10.8938
咳嗽	-10.8939
的最佳	-10.8943
公交车	-10.8944
宁波	-10.8949
审美	-10.8951
出现的	-10.8955
小孩子	-10.8958
。”“	-10.8958
劳动者	-10.896
cm	-10.8962
伟大的	-10.8962
爱上	-10.8964
引用	-10.8968
还不错	-10.8969
智商	-10.897
猪肉	-10.897
郊	-10.8972
脾	-10.8976
改为	-10.8978
收缩	-10.8979
at	-10.898
可以让	-10.898
类别	-10.8982
陶瓷	-10.8982
一笑	-10.8983
PS	-10.8984
菊	-10.8985
最后的	-10.8986
缠	-10.8987
4000	-10.8989
押	-10.8989
星星	-10.8991
真理	-10.8992
付费	-10.8995
满了	-10.8996
有益	-10.8999
太多了	-10.9002
安置	-10.9003
跌幅	-10.9003
起诉	-10.9007
就行了	-10.902
价位	-10.9021
捉	-10.9023
注意力	-10.9024
罚款	-10.9029
夸张	-10.9029
体力	-10.9033
屁	-10.9033
大门	-10.9037
慌	-10.904
贯彻	-10.9042
工商	-10.9042
开盘	-10.9043
的资金	-10.9043
严谨	-10.9044
看待	-10.9047
额度	-10.9047
还将	-10.9049
内存	-10.905
这家	-10.9053
歌词	-10.9053
潜在	-10.9055
海上	-10.9056
取代	-10.9057
智能化	-10.9058
来临	-10.9059
数十	-10.9059
自家	-10.9061
前行	-10.9062
身体健康	-10.9065
对自己的	-10.9065
却不	-10.9066
脑袋	-10.9069
签署	-10.9069
底层	-10.9069
翁	-10.907
精确	-10.9072
隐私	-10.9073
更快	-10.9078
注入	-10.908
留学生	-10.9082
淘汰	-10.9082
转身	-10.9082
但如果	-10.9082
饭店	-10.9083
慕	-10.9086
配送	-10.9088
誉	-10.9088
拓	-10.9089
已经有	-10.9089
筛选	-10.909
疗效	-10.909
的路上	-10.909
五大	-10.9101
以内	-10.9106
较大的	-10.9107
44	-10.9107
不舒服	-10.9114
表情	-10.9114
不明白	-10.9117
我发现	-10.9117
透过	-10.9117
水晶	-10.9118
哇	-10.9118
阿里巴巴	-10.9119
暗示	-10.912
犹如	-10.9125
自学	-10.9126
过渡	-10.9126
全新的	-10.9127
侍	-10.9128
国家的	-10.9131
各方面	-10.9132
好朋友	-10.9138
资深	-10.9138
昆明	-10.9139
干什么	-10.914
惩罚	-10.9143
集合	-10.9147
主编	-10.9148
一般是	-10.9151
备用	-10.9153
碱	-10.9159
法定	-10.9161
答题	-10.9162
改变了	-10.9163
场面	-10.9164
缴费	-10.9165
和社会	-10.9166
脑子	-10.9167
夫妇	-10.9168
肚	-10.917
的语言	-10.9172
排列	-10.9173
不出来	-10.9175
在上海	-10.9175
默默	-10.9176
化解	-10.9177
智力	-10.918
坦	-10.918
生日	-10.9181
董事	-10.9184
美白	-10.9185
环境下	-10.9185
食堂	-10.9186
袖	-10.9187
失误	-10.9189
增多	-10.9197
十足	-10.9199
决心	-10.9199
抛弃	-10.92
促使	-10.9203
顺便	-10.9203
一会	-10.9203
爸妈	-10.9206
豹	-10.9209
越是	-10.9212
却没有	-10.9216
车身	-10.9217
在全国	-10.9217
暮	-10.9219
暂停	-10.922
便秘	-10.9222
万平方米	-10.9224
违	-10.9226
科学技术	-10.9227
感叹	-10.9228
稳定的	-10.923
黄河	-10.9233
大方	-10.9233
车子	-10.9235
胎儿	-10.9237
密封	-10.9238
85	-10.9239
券	-10.9239
大自然	-10.924
的安全	-10.9242
遮	-10.9243
排水	-10.9243
电流	-10.9244
这张	-10.9245
亲子	-10.9245
汇报	-10.9246
武装	-10.9246
凌晨	-10.9249
IP	-10.9251
lo	-10.9252
坦克	-10.9254
白癜风	-10.9259
都会有	-10.9264
路口	-10.9266
强劲	-10.9266
生活在	-10.9267
柔软	-10.9269
希腊	-10.9271
售价	-10.9271
拆迁	-10.9272
腹部	-10.9274
右手	-10.9275
曹操	-10.9277
首席	-10.9277
合计	-10.9278
为啥	-10.9281
副作用	-10.9282
谈恋爱	-10.9282
充实	-10.9284
播出	-10.929
役	-10.9291
华人	-10.9293
一期	-10.9293
1:	-10.9295
低调	-10.9295
搅拌	-10.9296
走在	-10.9298
开门	-10.9298
淮	-10.9298
录音	-10.9298
说他	-10.9302
日至	-10.9304
光线	-10.9304
如果我们	-10.9307
时空	-10.9308
包容	-10.9309
:「	-10.9309
就需要	-10.931
留下了	-10.931
不锈钢	-10.9311
爸	-10.9311
军人	-10.9312
损坏	-10.9314
警告	-10.9315
揽	-10.9315
ad	-10.9319
当日	-10.9321
消灭	-10.9323
预警	-10.9328
开水	-10.9328
蕾	-10.9329
按钮	-10.9332
销售额	-10.9332
枫	-10.9332
任意	-10.9333
较高的	-10.9334
吟	-10.9335
不好意思	-10.9335
为什么不	-10.9339
教会	-10.9351
所在地	-10.9352
剩余	-10.9353
拌	-10.9354
此事	-10.9355
的本质	-10.9355
67	-10.9358
原文	-10.9361
取出	-10.9366
的父亲	-10.9367
交付	-10.9367
成立于	-10.937
破产	-10.9372
晃	-10.9373
的市场	-10.9375
发现自己	-10.9376
法律法规	-10.9378
合作伙伴	-10.9381
为什么会	-10.9383
只有一个	-10.9384
终止	-10.9384
开头	-10.9384
侵权	-10.9395
吵架	-10.9395
自治区	-10.9397
悔	-10.9398
手动	-10.9398
奴	-10.9398
他对	-10.9398
还是有	-10.94
拾	-10.9401
低价	-10.9404
的梦想	-10.9404
红包	-10.9408
航天	-10.941
古城	-10.9411
可靠	-10.9413
婉	-10.9416
成效	-10.9416
大多数人	-10.942
床上	-10.9425
抵押	-10.9426
制成	-10.9426
se	-10.9428
和她	-10.9428
未必	-10.943
惊讶	-10.9432
干嘛	-10.9433
打出	-10.9435
批发	-10.9438
没了	-10.9444
毫不	-10.9445
犹豫	-10.945
指责	-10.9452
术后	-10.9452
流畅	-10.9453
不一样的	-10.9454
驰	-10.9455
条件下	-10.9456
轨道	-10.9466
电动车	-10.9467
抬头	-10.9469
el	-10.947
湖南省	-10.9471
勃	-10.9471
一千	-10.9472
多元	-10.9473
忍受	-10.9475
新时代	-10.9476
身后	-10.9476
剧本	-10.9477
容器	-10.9478
所属	-10.9482
悲剧	-10.9483
号码	-10.9484
汝	-10.9485
你会发现	-10.9487
联想	-10.9487
的国家	-10.9488
泄	-10.9488
秘书	-10.9489
发了	-10.949
摆放	-10.949
告诉我们	-10.9492
同一个	-10.9492
花生	-10.9492
公示	-10.9493
既有	-10.9494
▁第三	-10.9495
日下午	-10.9497
最重要的是	-10.9497
电压	-10.9498
途中	-10.9498
人力资源	-10.95
兄	-10.9502
扁	-10.9505
贵族	-10.9506
运转	-10.9507
的话题	-10.9507
我去	-10.9509
来到了	-10.9509
沉淀	-10.9512
这篇文章	-10.9512
詹姆斯	-10.9512
鹅	-10.9514
与人	-10.9517
发热	-10.9518
关怀	-10.9519
钻石	-10.9519
信贷	-10.952
社会的	-10.9527
代价	-10.9531
笨	-10.9531
知道了	-10.9533
铸	-10.9534
0%	-10.9534
三分	-10.9535
劳动力	-10.9535
68	-10.9535
我没	-10.9536
丧失	-10.9539
颖	-10.954
前提	-10.954
词条	-10.9541
腺	-10.9541
钓	-10.9543
浸泡	-10.9543
不当	-10.9546
大队	-10.9555
携手	-10.9558
找出	-10.9558
进入了	-10.9558
产业发展	-10.9561
车上	-10.9563
轿车	-10.9563
必要	-10.9564
了他	-10.9565
出色	-10.9566
哈尔滨	-10.9567
能力和	-10.9567
生态环境	-10.9568
央视	-10.957
昆	-10.957
西瓜	-10.9571
收盘	-10.9572
新兴	-10.9575
蹭	-10.9576
中原	-10.9576
健全	-10.9578
底线	-10.958
决定了	-10.958
对我们	-10.9582
不信	-10.9582
也需要	-10.9585
慎	-10.9586
冷却	-10.9587
后台	-10.9587
崖	-10.959
纲	-10.9591
没啥	-10.9592
告别	-10.9592
还原	-10.9592
不会有	-10.9594
妄	-10.9595
的质量	-10.9597
线索	-10.9598
寡	-10.9598
痒	-10.96
廷	-10.9602
半小时	-10.9602
感悟	-10.9604
以下简称	-10.9608
陷	-10.9609
温和	-10.9611
挽回	-10.9615
ra	-10.9619
为之	-10.962
的应用	-10.9621
混凝土	-10.9621
极大的	-10.9624
斋	-10.9626
发布了	-10.9627
克斯	-10.9627
成为一个	-10.9629
公布的	-10.9629
入住	-10.9629
的因素	-10.963
发货	-10.9635
时期的	-10.9635
规矩	-10.9638
不可以	-10.9638
萝卜	-10.9639
做饭	-10.9642
的经济	-10.9643
咽	-10.9645
糟糕	-10.9646
清华	-10.9648
合肥	-10.9651
锤	-10.9653
任何一个	-10.9656
格外	-10.9658
佛法	-10.9659
告诉他	-10.966
缩短	-10.9661
li	-10.9665
评选	-10.9665
分成	-10.9666
功德	-10.9667
调理	-10.9669
恭	-10.9669
项目的	-10.967
从前	-10.9672
逃避	-10.9673
身边的	-10.9674
的脸	-10.9676
工作者	-10.9677
就得	-10.9678
联邦	-10.9679
匹	-10.968
立场	-10.9681
派出所	-10.9681
足够的	-10.9683
简洁	-10.9684
攻略	-10.9684
精选	-10.9687
76	-10.9688
恒大	-10.9694
深处	-10.9695
一等奖	-10.9697
被迫	-10.9697
要在	-10.9697
已经被	-10.97
年轻的	-10.97
符号	-10.9701
只是一个	-10.9701
震撼	-10.9702
遗址	-10.9702
:(	-10.9703
适当的	-10.9705
用人单位	-10.9708
任何人	-10.9708
灿烂	-10.9712
注意到	-10.9716
40%	-10.9717
公元	-10.9717
关爱	-10.972
作风	-10.9721
四季	-10.9725
你怎么	-10.973
风吹	-10.9731
所得	-10.9733
战役	-10.9735
奥运会	-10.974
发病	-10.9744
每当	-10.9744
做完	-10.9746
推行	-10.9746
极限	-10.9749
快捷	-10.9749
中小	-10.9751
要比	-10.9751
▁4	-10.9753
解脱	-10.9757
酶	-10.9758
择	-10.9759
运营商	-10.976
痕	-10.9761
64	-10.9761
不通	-10.9762
枣	-10.9764
心中的	-10.9765
自卑	-10.9765
庚	-10.9767
总理	-10.9767
我们将	-10.9768
人们的	-10.9771
验收	-10.9774
微信公众号	-10.9775
无穷	-10.9775
id	-10.9777
头痛	-10.9778
局面	-10.9778
友情	-10.9782
天上	-10.9782
的办法	-10.9784
面上	-10.9785
比我	-10.979
没有办法	-10.9795
输送	-10.9795
而后	-10.9796
浏览	-10.9796
一带	-10.9797
整形	-10.9802
▁李	-10.9802
进化	-10.9804
交警	-10.9805
挫折	-10.9809
嘴里	-10.9809
两家	-10.9811
越来越多的	-10.9811
前者	-10.9811
准备好	-10.9814
玩法	-10.9814
笑话	-10.9815
屯	-10.9817
椒	-10.9819
现货	-10.9819
蓄	-10.982
来做	-10.983
才可以	-10.983
儿女	-10.9836
这套	-10.9843
下车	-10.9844
华夏	-10.9845
天然气	-10.9845
带上	-10.9853
每个月	-10.9855
王朝	-10.9856
放弃了	-10.9857
ic	-10.9858
▁本	-10.9861
跑到	-10.9862
非要	-10.9862
了自己	-10.9863
网易	-10.9863
阔	-10.9864
蝴蝶	-10.9865
彻	-10.9865
沙发	-10.9867
当然是	-10.9868
创造了	-10.9868
高科技	-10.9869
蓉	-10.9869
因为我们	-10.9869
不及	-10.9873
瑟	-10.9873
村里	-10.9874
完全可以	-10.988
爱国	-10.9884
终究	-10.9885
怎么做	-10.9886
日线	-10.9887
70%	-10.9888
一分	-10.9889
较好	-10.989
主要有	-10.989
人为	-10.9892
刑事	-10.9894
乾隆	-10.9894
帽子	-10.9895
很明显	-10.9895
回来了	-10.9898
你需要	-10.99
南部	-10.99
am	-10.9903
专注于	-10.9904
脊	-10.9904
瑜伽	-10.9906
的成功	-10.9908
窗户	-10.991
瘤	-10.991
回购	-10.9912
美国人	-10.9915
公安机关	-10.9917
旨在	-10.9919
台上	-10.992
to	-10.9923
共计	-10.9926
问题是	-10.9927
三人	-10.9928
的音乐	-10.9928
澳	-10.9928
扰	-10.9929
场比赛	-10.9932
的活动	-10.9932
的高度	-10.9933
通报	-10.9934
会让你	-10.9936
杀死	-10.9937
亚马逊	-10.9937
很快就	-10.9938
感知	-10.9943
业内	-10.9943
宁静	-10.9944
就应该	-10.9947
留给	-10.9949
的例子	-10.9951
北部	-10.9951
繁华	-10.9952
海关	-10.9954
购房	-10.9955
折磨	-10.9956
驴	-10.9956
对中国	-10.9957
吸引力	-10.9957
51	-10.996
溢	-10.9962
优良	-10.9964
四周	-10.9965
穿上	-10.9965
油价	-10.9966
三角	-10.9967
修炼	-10.9967
附属	-10.997
她在	-10.997
坚守	-10.9973
万一	-10.9973
文本	-10.9978
▁第四	-10.9978
下属	-10.9978
资助	-10.9979
会造成	-10.9979
让大家	-10.998
键盘	-10.9984
的趋势	-10.9984
肝脏	-10.9984
拐	-10.9985
关键是	-10.9987
上半年	-10.9989
滋味	-10.999
河北省	-10.999
将成为	-10.9993
捐	-10.9996
白银	-10.9996
生产的	-10.9996
与其他	-10.9997
的距离	-10.9997
常用的	-10.9997
护肤	-10.9997
美人	-10.9997
挣扎	-10.9999
愤	-11.0002
▁第二	-11.0003
一组	-11.0006
气血	-11.0007
拯救	-11.001
暑	-11.001
座椅	-11.0011
起码	-11.0011
做不到	-11.0011
此刻	-11.0012
全方位	-11.0013
法人	-11.0015
伴随着	-11.0016
带给	-11.0018
公正	-11.0022
盯着	-11.0022
详情	-11.0026
物联网	-11.0027
不明	-11.0027
有不少	-11.0027
湖北省	-11.0029
欺骗	-11.0035
日本人	-11.0038
老子	-11.0038
摄入	-11.0042
街头	-11.0043
楼市	-11.0044
52	-11.0046
的发生	-11.0046
荣耀	-11.0047
天猫	-11.0048
这块	-11.0049
说服	-11.005
闺蜜	-11.0051
发电	-11.0051
未知	-11.0052
的道理	-11.0054
之旅	-11.0054
茨	-11.0055
是他	-11.0055
芝	-11.0056
上传	-11.0056
纳税人	-11.006
家园	-11.0062
的文化	-11.0065
中国经济	-11.0067
洛阳	-11.007
复发	-11.0075
姿势	-11.0075
曾任	-11.0076
没能	-11.0077
意志	-11.0078
口语	-11.0078
空白	-11.0078
特别的	-11.0081
我爸	-11.0082
琼	-11.0083
不允许	-11.0083
复试	-11.0088
大国	-11.0092
灵感	-11.0095
标准的	-11.0096
60%	-11.0096
情人	-11.0097
以前的	-11.0097
一万	-11.0098
其实就是	-11.0104
可以去	-11.0105
挣钱	-11.0108
是非	-11.0109
新一代	-11.0109
他自己	-11.0109
大佬	-11.0111
交互	-11.0111
荷兰	-11.0111
牛市	-11.0112
客户的	-11.0117
打车	-11.0117
为他	-11.0118
患者的	-11.0118
整天	-11.0118
腐败	-11.0119
86	-11.012
我可以	-11.0121
某一	-11.0122
中山	-11.0122
利好	-11.0123
是自己	-11.0124
釉	-11.0124
又称	-11.0124
吉林	-11.0126
问他	-11.0127
珍珠	-11.0128
用地	-11.0132
的教学	-11.0133
会对	-11.0134
哭了	-11.0134
”(	-11.0135
马云	-11.0136
顶尖	-11.0136
组成的	-11.0137
的艺术	-11.0141
牌子	-11.0141
灾难	-11.0143
狮	-11.0144
拒	-11.0145
熟练	-11.0146
唯有	-11.0148
约为	-11.0148
研究员	-11.0148
更重要的是	-11.0149
攀	-11.0149
绝对是	-11.015
里有	-11.015
1999	-11.0155
新技术	-11.0155
兰州	-11.0157
涉及到	-11.0157
》)	-11.0157
la	-11.0158
桥梁	-11.0159
勉强	-11.0159
捞	-11.016
是这样的	-11.016
恶意	-11.0162
好吗	-11.0163
重建	-11.0164
三国	-11.0165
该村	-11.0166
高点	-11.0169
回调	-11.0172
分工	-11.0175
痰	-11.0176
新年	-11.0176
相继	-11.0178
门诊	-11.0179
纳税	-11.0179
爸爸妈妈	-11.0188
长达	-11.0188
栏目	-11.0188
提高了	-11.0188
巾	-11.0189
粤	-11.0194
裁	-11.0198
服务业	-11.0202
遗传	-11.0203
的使用	-11.0206
无所谓	-11.0207
土耳其	-11.0208
负面	-11.0209
96	-11.021
买到	-11.021
冈	-11.0214
参照	-11.0215
革	-11.0215
上面的	-11.0215
的任务	-11.0217
兑	-11.0217
覆	-11.0223
愚	-11.0224
对应的	-11.023
以至于	-11.0231
语法	-11.0232
到期	-11.0236
期刊	-11.0236
就不能	-11.0238
翘	-11.024
十字	-11.0241
地处	-11.0244
环比	-11.0246
穿过	-11.025
的重点	-11.0253
已被	-11.0257
左手	-11.0261
海拔	-11.0261
一个问题	-11.0265
原来的	-11.0267
商店	-11.0268
各方	-11.027
模具	-11.027
太多的	-11.0271
疲惫	-11.0272
不该	-11.0274
株	-11.0274
圈子	-11.0276
内在	-11.0277
。2018	-11.0277
大夫	-11.0278
路面	-11.0278
红利	-11.0281
换了	-11.0283
各种各样的	-11.0284
学家	-11.0289
搭载	-11.0291
桐	-11.0293
在未来	-11.0298
激活	-11.03
这座	-11.0301
任职	-11.0303
帘	-11.0303
理想的	-11.0304
特意	-11.0307
沿着	-11.0308
前方	-11.0308
持久	-11.0309
内饰	-11.031
福州	-11.031
介	-11.0311
首发	-11.0312
狱	-11.0313
蝶	-11.0316
效力	-11.0316
夕	-11.0316
港口	-11.0317
老家	-11.0317
底下	-11.0318
址	-11.0323
童话	-11.0324
勺	-11.0325
看不见	-11.0326
淀粉	-11.0327
惜	-11.0327
附近的	-11.0327
出资	-11.0328
的对象	-11.033
拱	-11.033
滴滴	-11.0331
的未来	-11.0331
衫	-11.0331
侧面	-11.0332
租金	-11.0333
寅	-11.0336
领袖	-11.0339
一共	-11.0339
59	-11.0339
并不能	-11.034
成熟的	-11.034
焦点	-11.0341
码头	-11.0343
离职	-11.0344
中小学	-11.0345
相对于	-11.0348
构造	-11.0349
分公司	-11.0353
猜测	-11.0353
富贵	-11.0353
仓库	-11.0354
宝马	-11.0354
廉	-11.0356
平米	-11.0359
稻	-11.0359
打扮	-11.0361
78	-11.0361
言语	-11.0368
堪称	-11.0369
深深	-11.0372
旦	-11.0372
巅峰	-11.0375
剥	-11.0375
纠正	-11.0376
再到	-11.0378
扛	-11.038
评审	-11.038
灶	-11.0383
et	-11.0385
娃娃	-11.0385
谜	-11.0386
如有	-11.0386
万里	-11.0388
都已经	-11.0388
法学	-11.0389
行人	-11.0389
捣	-11.039
咯	-11.0391
衡量	-11.0391
讲座	-11.0392
水中	-11.0394
租房	-11.0395
即便是	-11.04
外形	-11.0402
我把	-11.0402
ok	-11.0403
1998	-11.0404
匠	-11.0405
走上	-11.0408
一碗	-11.0409
正当	-11.0416
切换	-11.0417
听见	-11.0418
耍	-11.0419
前沿	-11.0423
有限责任公司	-11.0424
一脸	-11.0424
另外一个	-11.0425
保湿	-11.0427
搓	-11.0428
刃	-11.0429
趁	-11.0429
的动作	-11.0431
出道	-11.0431
边界	-11.0433
就这么	-11.0436
演唱会	-11.0438
皱	-11.0439
半导体	-11.044
的成长	-11.044
削	-11.0441
配方	-11.0444
一夜	-11.0445
也非常	-11.0449
过高	-11.0449
较小	-11.045
得好	-11.0451
微微	-11.0453
国人	-11.0454
乾	-11.0454
糟	-11.0456
就越	-11.0457
液体	-11.0459
余额	-11.046
欺负	-11.0461
户型	-11.0461
宽容	-11.0462
黏	-11.0464
首批	-11.0466
无疑是	-11.0466
类型的	-11.0467
的身影	-11.0468
日后	-11.0471
有一点	-11.0472
碰撞	-11.0473
拿起	-11.0474
每一位	-11.0475
世人	-11.0477
蜡	-11.0477
多项	-11.0478
城市的	-11.0479
差点	-11.048
事后	-11.0489
看法	-11.0491
夷	-11.0492
这段时间	-11.0493
灰色	-11.0493
ho	-11.0495
受欢迎	-11.0496
着我	-11.0496
即是	-11.0496
吃完	-11.0497
客房	-11.0497
前途	-11.0497
周一	-11.0497
吼	-11.0499
无情	-11.0499
小小	-11.05
下游	-11.0502
咏	-11.0505
一直以来	-11.0506
概	-11.0506
饰演	-11.0508
大桥	-11.051
多名	-11.051
的前提下	-11.051
猫咪	-11.0511
救助	-11.0512
只想	-11.0514
最后一	-11.0515
的认识	-11.0516
鲁迅	-11.0516
热度	-11.0517
而我	-11.0521
在我的	-11.0522
挂牌	-11.0524
IT	-11.0524
用户的	-11.0525
也是一种	-11.0529
内蒙古	-11.053
哎	-11.0531
对孩子	-11.0531
就算是	-11.0531
设计的	-11.0532
谈到	-11.0532
当做	-11.0532
多元化	-11.0537
核桃	-11.0539
借款	-11.0541
希望大家	-11.0542
阐述	-11.0544
个百分点	-11.0544
墙面	-11.0544
喜剧	-11.0547
目光	-11.055
静脉	-11.055
精灵	-11.0551
原材料	-11.0551
长远	-11.0552
往下	-11.0553
未经	-11.0556
宾馆	-11.0558
是这样	-11.056
国民党	-11.0564
模板	-11.0566
好事	-11.0568
我有	-11.0569
命名	-11.057
锌	-11.0571
呗	-11.0571
各有	-11.0571
第九	-11.0572
并购	-11.0573
平行	-11.0574
流失	-11.0578
体积	-11.0579
你有	-11.0579
宏观	-11.0579
新城	-11.058
了下来	-11.0581
民国	-11.0583
叶子	-11.0583
级别的	-11.0584
中国共产党	-11.0589
的女儿	-11.059
哟	-11.0593
焊接	-11.0593
国际化	-11.0594
仲裁	-11.0598
升高	-11.0598
通行	-11.0602
角落	-11.0602
特效	-11.0603
半夜	-11.0604
回升	-11.0607
没关系	-11.0607
一行	-11.0608
不来	-11.0608
▁第一节	-11.0611
两国	-11.0611
敢于	-11.0611
亲密	-11.0612
文书	-11.0614
认识到	-11.0615
的根本	-11.0616
圆形	-11.0616
绍	-11.0617
老鼠	-11.0617
九十	-11.0618
吉利	-11.0621
茅	-11.0623
搞笑	-11.0623
都不能	-11.0624
小伙伴	-11.0624
我希望	-11.0625
告诉记者	-11.0625
惯	-11.0628
歇	-11.063
所能	-11.063
嫁给	-11.0632
座位	-11.0632
视角	-11.0632
永久	-11.0633
的母亲	-11.0633
还不如	-11.0637
让学生	-11.0637
华丽	-11.0638
大火	-11.0639
雅思	-11.064
的建议	-11.0641
活动的	-11.0642
雀	-11.0646
堤	-11.0647
抖	-11.0648
360	-11.0648
莲花	-11.0652
海鲜	-11.0652
用水	-11.0653
品牌的	-11.0653
机体	-11.0653
火灾	-11.0654
诗词	-11.0655
防控	-11.0657
还是会	-11.0659
造成了	-11.0659
最新的	-11.066
竞争对手	-11.0664
南海	-11.0664
珠宝	-11.0665
祛斑	-11.0671
火车站	-11.0672
知名度	-11.0672
酱油	-11.0672
两边	-11.0672
摄像头	-11.0673
感激	-11.0675
为基础	-11.0678
的收入	-11.0678
57	-11.0678
争夺	-11.0679
非常重要	-11.0681
占领	-11.0682
虽说	-11.0685
明亮	-11.0686
倾向	-11.0686
熏	-11.0686
筹码	-11.0688
丛	-11.0688
商量	-11.0689
占用	-11.069
紧紧	-11.0694
轮胎	-11.0695
概括	-11.0698
-2	-11.0698
巫	-11.07
排出	-11.0701
全民	-11.0701
承办	-11.0705
情报	-11.0705
是不会	-11.0705
大楼	-11.0707
的记忆	-11.0707
可在	-11.0709
芝麻	-11.0709
立足	-11.0709
倡导	-11.071
日语	-11.071
-0	-11.0712
总数	-11.0712
彦	-11.0714
合资	-11.0715
太高	-11.0716
收录	-11.0718
绩效	-11.072
编剧	-11.0721
人身	-11.0722
喜好	-11.0724
腕	-11.0726
学业	-11.0726
肤	-11.0727
的条件	-11.0732
不被	-11.0733
温泉	-11.0737
是多么	-11.0738
信念	-11.0738
为其	-11.0738
可以把	-11.0739
的命运	-11.0741
考上	-11.0742
前几天	-11.0743
轮回	-11.0746
全国各地	-11.0747
自己喜欢的	-11.0747
is	-11.0748
呈现出	-11.075
的品牌	-11.075
两点	-11.0754
教堂	-11.0756
农户	-11.0757
按时	-11.0757
面粉	-11.0758
卓越	-11.0758
严格的	-11.0758
文中	-11.0759
躺在	-11.0759
文化的	-11.076
笔试	-11.0762
成品	-11.0762
一个人的	-11.0764
发作	-11.0772
保守	-11.0773
史上	-11.0775
比喻	-11.0775
一轮	-11.0777
落户	-11.0778
职称	-11.0778
ai	-11.078
受损	-11.0781
陌生人	-11.0782
指的是	-11.0783
反射	-11.0783
实际情况	-11.0786
发力	-11.0788
比特币	-11.0788
外交	-11.0789
的人都	-11.0791
商人	-11.0791
交通运输	-11.0792
建材	-11.0792
切割	-11.0793
自律	-11.0793
品味	-11.0796
水准	-11.0796
贯穿	-11.0796
小于	-11.0797
拉升	-11.0797
属于自己的	-11.0798
煞	-11.0799
三百	-11.08
高档	-11.0801
膝	-11.0802
师父	-11.0802
钉	-11.0803
戳	-11.0804
▁张	-11.0805
击败	-11.0806
吸引了	-11.0806
72	-11.0808
手臂	-11.0809
起来了	-11.0809
目前的	-11.081
怀念	-11.081
不停	-11.0813
的答案	-11.0813
匆匆	-11.0815
诸葛亮	-11.0816
ri	-11.0818
提出的	-11.082
寒冷	-11.0822
玩游戏	-11.0823
首要	-11.0823
质感	-11.0824
钦	-11.0826
虐	-11.0826
字母	-11.0826
开工	-11.0826
大城市	-11.0826
春秋	-11.0828
胀	-11.0829
登上	-11.0829
隧道	-11.0833
那位	-11.0836
卤	-11.0838
勤奋	-11.0839
我不是	-11.0839
眼神	-11.0839
逝	-11.084
都非常	-11.0841
电磁	-11.0841
凡是	-11.0844
增大	-11.0844
的概率	-11.0845
类似的	-11.0849
热烈	-11.0849
有能力	-11.085
所有人都	-11.085
悄悄	-11.0851
门票	-11.0852
夜间	-11.0854
国防	-11.0856
良心	-11.0856
特色的	-11.0857
随之	-11.086
阻碍	-11.0862
泊	-11.0862
ip	-11.0863
弥	-11.0864
亲切	-11.0864
相爱	-11.0864
理智	-11.0865
包裹	-11.0866
的健康	-11.0866
业界	-11.0866
的情感	-11.0867
困惑	-11.0867
近代	-11.0868
找工作	-11.0869
能做到	-11.0871
柄	-11.0871
趋	-11.0874
调解	-11.0876
选购	-11.0877
▁5	-11.0877
误区	-11.0877
过往	-11.0879
的相关	-11.0881
完善的	-11.0882
了几	-11.0883
散文	-11.0885
构	-11.089
平凡	-11.0895
修订	-11.0896
的操作	-11.0898
历史的	-11.09
me	-11.0902
再生	-11.0902
上演	-11.0904
见证	-11.0905
已经开始	-11.0905
▁第二节	-11.0906
近视	-11.0909
卒	-11.0911
甘肃	-11.0911
基础上	-11.0911
中枢	-11.0913
主机	-11.0915
54	-11.0916
这才是	-11.0917
重心	-11.0917
制药	-11.092
是一位	-11.0921
我能	-11.0925
环境中	-11.0928
蕴	-11.0931
着力	-11.0936
立法	-11.0939
还算	-11.0939
独立的	-11.094
奔驰	-11.0941
的战略	-11.0944
宪	-11.0944
清净	-11.0945
好不好	-11.0946
试卷	-11.0946
沙漠	-11.0947
压抑	-11.0948
的水平	-11.0949
融资融券	-11.095
为准	-11.0951
在外面	-11.0952
很开心	-11.0952
之日起	-11.0953
直观	-11.0954
目的地	-11.0955
外贸	-11.0955
要不要	-11.0956
维度	-11.0957
三级	-11.0957
熔	-11.0957
愉悦	-11.0958
楼盘	-11.096
火爆	-11.096
毫	-11.0961
1-2	-11.0962
尹	-11.0962
厌	-11.0967
亲情	-11.0973
这几年	-11.0974
店里	-11.0976
平淡	-11.0977
人都	-11.0978
我感觉	-11.0979
年末	-11.098
茎	-11.0981
修建	-11.0984
领导人	-11.0984
做出了	-11.0986
礼仪	-11.0986
自有	-11.0988
储存	-11.0991
庆祝	-11.0992
只能说	-11.0993
出演	-11.0994
相关部门	-11.0995
分割	-11.0997
腐	-11.0999
疆	-11.0999
春季	-11.0999
本来就	-11.1
有害	-11.1
无锡	-11.1003
难得	-11.1005
家里的	-11.1005
的传统	-11.1005
从来	-11.1005
交易所	-11.1008
我只	-11.1011
截图	-11.1012
流浪	-11.1013
佩戴	-11.1014
es	-11.1014
渊	-11.1017
阶级	-11.1018
电网	-11.1018
和尚	-11.1019
小吃	-11.1019
引起了	-11.102
是通过	-11.102
sh	-11.1022
没有了	-11.1024
很高的	-11.1026
泻	-11.1028
▁王	-11.1028
的用户	-11.1028
的比赛	-11.1029
九章	-11.1029
是我的	-11.1033
传达	-11.1033
民营企业	-11.1034
两只	-11.1035
贱	-11.1037
庞	-11.1038
大厅	-11.1039
去医院	-11.1041
季度	-11.1041
主演	-11.1043
乐趣	-11.1043
等方式	-11.1045
几句	-11.1046
老大	-11.1048
中华民族	-11.1052
的文字	-11.1054
渴	-11.1055
事先	-11.1057
折腾	-11.1058
涵盖	-11.1059
酥	-11.106
赶到	-11.1062
秉承	-11.1062
子公司	-11.1064
样子	-11.1065
警惕	-11.1067
出自	-11.1068
53	-11.1069
之家	-11.1069
徽	-11.107
球场	-11.1071
撰写	-11.1073
翡翠	-11.1073
丈	-11.1074
细分	-11.1075
贯	-11.1078
的灵魂	-11.1078
名词	-11.1079
不准	-11.1079
百分之	-11.1079
同情	-11.1081
远方	-11.1081
阴影	-11.1081
更重要	-11.1082
的政策	-11.1083
五行	-11.1083
骗子	-11.1087
细心	-11.1089
防晒	-11.1089
卸	-11.1091
也算是	-11.1091
请你	-11.1094
的错误	-11.1094
我市	-11.1095
这些问题	-11.1097
颂	-11.1098
小火	-11.1099
有很大	-11.11
观赏	-11.1103
没钱	-11.1103
新高	-11.1106
了多少	-11.1109
自媒体	-11.1111
浙	-11.1111
召	-11.1111
绝不	-11.1114
近几年	-11.1117
几位	-11.112
完毕	-11.112
裤子	-11.1125
悉	-11.1128
等你	-11.1128
外语	-11.113
活动中	-11.1131
蚕	-11.1131
创业者	-11.1131
早日	-11.1132
从不	-11.1133
详细的	-11.1134
果实	-11.1135
鲜花	-11.1136
累了	-11.1136
好吧	-11.1136
二维码	-11.1137
其实我	-11.1138
也无法	-11.1139
比较高	-11.114
强行	-11.1141
人类的	-11.1142
将近	-11.1142
谈话	-11.1145
不应	-11.1145
充分发挥	-11.1146
鞭	-11.1147
愿望	-11.1148
的理念	-11.1149
辖	-11.1151
裁判	-11.1158
可以帮助	-11.1158
还未	-11.116
北京大学	-11.116
指引	-11.116
财政部	-11.1164
对照	-11.1167
番茄	-11.1167
乐园	-11.1168
试着	-11.1169
独家	-11.1169
心底	-11.1171
衡	-11.1172
肥胖	-11.1172
是用	-11.1173
我们需要	-11.1174
就像是	-11.1174
件事	-11.1176
长寿	-11.1177
东莞	-11.1177
撤销	-11.1178
船舶	-11.1178
做的事情	-11.118
推出了	-11.118
历经	-11.118
干脆	-11.1182
彩色	-11.1182
抑郁	-11.1186
还款	-11.119
有几个	-11.119
跟我说	-11.1194
步入	-11.1194
纺织	-11.1198
更高的	-11.12
楠	-11.12
看的	-11.1202
死后	-11.1202
首先是	-11.1208
个小	-11.1209
朋	-11.1211
轰	-11.1213
一起去	-11.1213
法治	-11.1214
就是你	-11.1216
启发	-11.1216
凭证	-11.1217
明确的	-11.1218
仍在	-11.1221
再见	-11.1222
政务	-11.1222
骚	-11.1224
的电影	-11.1225
巧克力	-11.1225
钢管	-11.1225
一门	-11.1226
铅	-11.1228
依次	-11.1231
疑惑	-11.1233
拘	-11.1233
监狱	-11.1236
仍是	-11.1239
厚度	-11.1242
直径	-11.1243
那样的	-11.1247
一季度	-11.1247
自助	-11.1249
每人	-11.125
投机	-11.125
查处	-11.1251
忆	-11.1253
写出	-11.1253
补助	-11.1254
叔叔	-11.1254
欢喜	-11.1255
成年人	-11.1255
分明	-11.1256
籽	-11.1259
如果我	-11.1262
中考	-11.1262
量化	-11.1264
拆除	-11.1264
炒作	-11.1265
等多种	-11.1265
均可	-11.1266
讲的	-11.1268
缩小	-11.1269
一家人	-11.1271
的动力	-11.1275
杏	-11.1275
怎么会	-11.1275
标识	-11.1275
商业银行	-11.1276
战队	-11.1277
甲醛	-11.1278
是需要	-11.128
好人	-11.1281
散户	-11.1282
权重	-11.1284
绵	-11.1284
习惯了	-11.1285
法官	-11.1285
写下	-11.1285
1997	-11.1285
比你	-11.1287
于此	-11.1287
素养	-11.1287
品类	-11.1287
下一	-11.1288
拿出来	-11.1288
生于	-11.1289
其中的	-11.1289
市级	-11.1291
四处	-11.1292
的时候就	-11.1294
不少人	-11.1303
初级	-11.1303
秋季	-11.1304
开花	-11.1304
综艺	-11.1304
支援	-11.1306
几千	-11.1307
基督教	-11.1307
椅	-11.1308
已是	-11.1308
一两	-11.131
燃气	-11.1312
不小心	-11.1316
水库	-11.1317
谨	-11.1317
把自己的	-11.1319
体会到	-11.1319
裙子	-11.132
毕业于	-11.1321
但由于	-11.1325
第一天	-11.1326
事宜	-11.1327
斥	-11.1332
投标	-11.1334
宗旨	-11.1334
的好处	-11.1335
说不定	-11.1336
兜	-11.1336
市面上	-11.1338
瓣	-11.1341
一所	-11.1342
稳健	-11.1345
报销	-11.1347
再也	-11.1348
所说	-11.1349
改编	-11.1354
二等奖	-11.1354
依然是	-11.1354
数百	-11.1356
与你	-11.1356
都是在	-11.1357
的幸福	-11.1359
间接	-11.1359
刘备	-11.136
笋	-11.136
×	-11.1361
内心的	-11.1362
鼠标	-11.1363
显现	-11.1363
被评为	-11.1364
拉开	-11.1365
抵抗	-11.1365
大学的	-11.1368
『	-11.1372
型号	-11.1372
上次	-11.1375
联合国	-11.1376
票房	-11.1377
冥	-11.1379
捐赠	-11.1379
掩	-11.138
侵犯	-11.1381
77	-11.1387
载体	-11.1388
最好是	-11.1389
坐着	-11.139
180	-11.1391
数码	-11.1393
均有	-11.1393
ay	-11.1393
命题	-11.1394
狮子	-11.1396
环境保护	-11.1396
市场份额	-11.1398
的到来	-11.1398
为我们	-11.1403
路段	-11.1405
货币政策	-11.1406
乐队	-11.1407
故乡	-11.1408
七章	-11.1408
就不要	-11.1409
今年的	-11.1409
部长	-11.141
单纯的	-11.1412
大街	-11.1416
定向	-11.1418
羊肉	-11.1419
和发展	-11.142
心动	-11.142
同期	-11.1421
的项目	-11.1422
1500	-11.1424
也只是	-11.1426
燥	-11.1426
日军	-11.1427
扩	-11.1427
小学生	-11.1427
躺	-11.1428
震惊	-11.1429
的成本	-11.1431
仆	-11.1431
高管	-11.1431
太阳能	-11.1433
借口	-11.1433
吃过	-11.1433
小伙伴们	-11.1434
首届	-11.1434
全家	-11.1436
的事实	-11.1439
都不知道	-11.144
小儿	-11.1441
庸	-11.1441
放量	-11.1441
不再是	-11.1442
督	-11.1443
亮相	-11.1443
既是	-11.1444
法制	-11.1445
快乐的	-11.1446
是一件	-11.1448
问问	-11.1451
低位	-11.1456
主办	-11.1457
决议	-11.1458
就必须	-11.1459
的工资	-11.146
会更	-11.1462
基本面	-11.1462
黑白	-11.1463
但是他	-11.1464
当他	-11.1465
也是一个	-11.1466
天真	-11.1468
裹	-11.1474
的症状	-11.1476
省份	-11.1481
一口气	-11.1482
兴起	-11.1482
才华	-11.1486
怎样的	-11.1486
行李	-11.1489
光滑	-11.149
为了让	-11.1491
不得不说	-11.1494
世上	-11.1495
谷歌	-11.1496
提倡	-11.1497
最重要	-11.1498
多头	-11.1498
概述	-11.15
豫	-11.1503
杰出	-11.1503
哈哈哈	-11.1505
长春	-11.1507
还可	-11.1508
的风格	-11.1508
可供	-11.1508
睿	-11.1511
信息技术	-11.1512
出轨	-11.1513
澳门	-11.1515
极度	-11.1516
这儿	-11.1518
▁·	-11.1519
在今年	-11.1523
面团	-11.1524
太平	-11.1524
南昌	-11.1527
老虎	-11.1528
周五	-11.1528
确立	-11.1531
二者	-11.1531
上行	-11.1532
你们的	-11.1533
哑	-11.1534
的女孩	-11.1534
全都	-11.1537
体现了	-11.154
建筑物	-11.1544
也让	-11.1544
的实力	-11.1545
卯	-11.1546
望着	-11.1546
听着	-11.1548
97	-11.1549
将继续	-11.1552
终点	-11.1552
邵	-11.1552
有兴趣	-11.1554
王者	-11.1555
中外	-11.1557
憋	-11.1558
15%	-11.1559
现金流	-11.156
69	-11.156
就成了	-11.1562
更多的是	-11.1564
国庆	-11.1565
车间	-11.157
生效	-11.1572
会把	-11.1572
还有一些	-11.1573
驾驶员	-11.1573
掌控	-11.1574
说得	-11.1574
路边	-11.1574
宝石	-11.1576
引擎	-11.1579
等领域	-11.1581
及其他	-11.1582
』	-11.1582
八章	-11.1583
入驻	-11.1583
摩托车	-11.1583
业余	-11.1585
肠胃	-11.1588
信誉	-11.159
泼	-11.159
的整体	-11.1592
下来的	-11.1593
出租车	-11.1593
证监会	-11.1598
集团有限公司	-11.1599
看出	-11.1602
早晚	-11.1602
滋润	-11.1604
你好	-11.1604
从容	-11.1606
疾病的	-11.1606
第三个	-11.1607
学会了	-11.1607
户籍	-11.1607
所在的	-11.1608
尸体	-11.1608
面板	-11.1608
姨	-11.1611
2-3	-11.1611
美景	-11.1611
盼	-11.1613
的治疗	-11.1613
贴心	-11.1614
很长	-11.1615
成立了	-11.1617
隐患	-11.162
一个大	-11.1621
动机	-11.1621
让它	-11.1622
然后就	-11.1622
外国人	-11.1623
闸	-11.1625
带走	-11.1628
王国	-11.1628
~~	-11.1631
脖子	-11.1631
澄	-11.1633
八卦	-11.1633
就想	-11.1633
证件	-11.1634
几分钟	-11.1634
自在	-11.1635
十万	-11.1636
计量	-11.1637
笛	-11.1638
约会	-11.1638
好转	-11.1639
尽力	-11.1639
昨晚	-11.164
的理论	-11.1641
做题	-11.1642
曾经的	-11.1649
供电	-11.165
逾	-11.1651
管辖	-11.1652
的关注	-11.1653
先行	-11.1654
十几年	-11.1656
当地的	-11.1656
被誉为	-11.1657
丰田	-11.1657
春风	-11.1658
已经在	-11.166
附加	-11.1661
说完	-11.1662
减持	-11.1662
噪音	-11.1665
新浪	-11.1666
奥运	-11.1668
康熙	-11.167
哪儿	-11.1672
清代	-11.1672
活泼	-11.1673
纤	-11.1673
村庄	-11.1682
六年	-11.1682
处分	-11.1685
国企	-11.1687
皱纹	-11.1688
饺子	-11.1689
管理者	-11.1689
病例	-11.169
小程序	-11.169
转化为	-11.169
有种	-11.169
加剧	-11.1694
仓位	-11.1696
小姐姐	-11.1698
室友	-11.1698
的手机	-11.1698
感应	-11.1699
白云	-11.17
又不	-11.17
的功效	-11.1702
开业	-11.1702
产品质量	-11.1702
酒吧	-11.1708
▁从	-11.1711
修养	-11.1711
陷阱	-11.1712
服务中心	-11.1712
诵	-11.1713
剧中	-11.1713
绘	-11.1714
us	-11.1714
毒素	-11.1715
总局	-11.1716
你现在	-11.1717
明朝	-11.1718
长相	-11.1719
要学会	-11.1724
6000	-11.1724
安徽省	-11.1727
的印象	-11.1727
大家都知道	-11.173
同类	-11.173
描绘	-11.1731
去掉	-11.1732
重重	-11.1735
东南亚	-11.1736
同样是	-11.1738
白菜	-11.1738
专业课	-11.1739
太太	-11.174
的视频	-11.1741
留意	-11.1741
清朝	-11.1743
评级	-11.1744
花卉	-11.1744
着你	-11.1745
是比较	-11.1745
电缆	-11.1746
我们是	-11.1747
生姜	-11.175
起来的	-11.175
风味	-11.1751
审理	-11.1752
阶层	-11.1753
玩的	-11.1753
该怎么	-11.1754
得意	-11.1762
扣除	-11.1763
考点	-11.1768
每个人的	-11.1769
首个	-11.1771
上游	-11.1772
好看的	-11.1772
弯曲	-11.1772
柠檬	-11.1773
大腿	-11.1775
传来	-11.1776
说着	-11.1777
多样	-11.1777
外套	-11.1778
疤痕	-11.1779
我的心	-11.1779
no	-11.1781
畜	-11.1782
高品质	-11.1785
早点	-11.1788
在路上	-11.1788
纯粹	-11.1789
发型	-11.179
庄家	-11.1793
是最好的	-11.1794
人民群众	-11.1794
演奏	-11.1795
的秘密	-11.1796
最具	-11.1799
抵达	-11.1799
精度	-11.1799
可怕的	-11.18
QQ	-11.18
就诊	-11.18
喜欢你	-11.1801
堪	-11.1802
▁我们	-11.1802
部件	-11.1802
死的	-11.1804
绑	-11.1805
山上	-11.1807
空军	-11.1809
尊严	-11.1811
自己也	-11.1811
了我的	-11.1812
就医	-11.1812
被告	-11.1817
礼品	-11.1818
有用	-11.1819
获悉	-11.1819
薯	-11.182
中最	-11.182
下面的	-11.1821
温州	-11.1827
分红	-11.1831
de	-11.1832
吸烟	-11.1833
的认知	-11.1838
不下	-11.1839
逊	-11.1839
有意	-11.184
杭	-11.184
于是我	-11.1841
三章	-11.1849
讲述了	-11.1851
在其	-11.1851
中部	-11.1851
武术	-11.1851
能力的	-11.1853
杉	-11.1853
联动	-11.1856
大专	-11.1856
之情	-11.1857
晚会	-11.1857
深夜	-11.1859
如果不是	-11.1865
名气	-11.1865
本事	-11.1865
肩膀	-11.1867
一心	-11.1871
援助	-11.1873
一头	-11.1873
的经营	-11.1876
一世	-11.1876
师范	-11.1877
有自己的	-11.1878
焉	-11.1878
经济增长	-11.1879
渝	-11.188
饮用	-11.188
回到了	-11.1881
眼部	-11.1882
ct	-11.1884
瑞士	-11.1884
指令	-11.1884
发音	-11.1884
相亲	-11.1885
业内人士	-11.189
治病	-11.189
看重	-11.1891
几点	-11.1891
视力	-11.1894
基金会	-11.1899
课本	-11.19
常年	-11.1903
违约	-11.1904
队的	-11.1904
的老师	-11.1904
有关规定	-11.1905
家伙	-11.1905
巴菲特	-11.1905
果断	-11.1906
光伏	-11.1906
商业模式	-11.1907
档次	-11.1909
茅台	-11.191
双重	-11.191
到你	-11.1911
秘书长	-11.1912
更能	-11.1912
河流	-11.1914
一流的	-11.1916
表现为	-11.1919
赢得了	-11.1919
就是因为	-11.1921
星座	-11.1921
这意味着	-11.1923
人力	-11.1926
胡萝卜	-11.1931
得到的	-11.1932
优质的	-11.1932
逾期	-11.1934
允	-11.1938
现实中	-11.194
抽象	-11.1941
的女生	-11.1942
推出的	-11.1945
异地	-11.1946
找了	-11.1947
会很	-11.1948
诠释	-11.1949
情商	-11.1953
人民医院	-11.1954
冤	-11.1955
如是	-11.1962
新媒体	-11.1963
旗舰店	-11.1964
却被	-11.1964
私募	-11.1965
还是比较	-11.1966
政权	-11.1968
〕	-11.1968
工会	-11.1969
嘴巴	-11.1969
适合自己的	-11.1971
饱满	-11.1972
做一些	-11.1973
牡丹	-11.1974
量的	-11.1975
变为	-11.1977
雕刻	-11.1977
整齐	-11.1978
栽培	-11.1979
先锋	-11.1979
刹车	-11.198
此处	-11.198
大叔	-11.1982
这么多年	-11.1983
不顾	-11.1983
五百	-11.1984
不了解	-11.1986
要多	-11.1986
小女孩	-11.1986
些什么	-11.1987
因为她	-11.1992
疗	-11.1994
弘扬	-11.1994
第一名	-11.1996
衍生	-11.2
促销	-11.2
变量	-11.2001
螺旋	-11.2002
也比较	-11.2002
不用担心	-11.2004
中美	-11.2004
型的	-11.2004
自带	-11.2005
结尾	-11.2007
遣	-11.2007
之后的	-11.2009
忘记了	-11.2009
福建省	-11.201
雯	-11.2012
只为	-11.2012
不服	-11.2012
俺	-11.2012
渠	-11.2013
分裂	-11.2015
学生们	-11.2016
相连	-11.2016
最有	-11.2017
产后	-11.2017
无形	-11.2018
日晚	-11.2019
二手	-11.2019
漏洞	-11.2021
有效地	-11.2022
清晨	-11.2022
吉祥	-11.2023
富含	-11.2025
63	-11.2027
泪水	-11.2029
评分	-11.2029
景色	-11.203
广州市	-11.2031
执业	-11.2031
剩下	-11.2031
赞美	-11.2035
县级	-11.2035
纺	-11.2037
太平洋	-11.2038
馅	-11.2038
很低	-11.2039
红军	-11.2039
简约	-11.204
楼梯	-11.204
这么说	-11.2044
教你	-11.2044
这事	-11.2044
上天	-11.2048
也曾	-11.205
气势	-11.2052
大片	-11.2053
名叫	-11.2054
仍有	-11.2054
模特	-11.2054
奖项	-11.2055
背后的	-11.2058
看他	-11.206
科学的	-11.2061
很是	-11.2062
散步	-11.2063
荆	-11.2064
怎么能	-11.2065
只见	-11.2065
跨越	-11.2066
锁定	-11.2066
否认	-11.2067
督促	-11.2068
室外	-11.207
沿海	-11.207
失业	-11.2071
睡前	-11.2071
却在	-11.2071
人人都	-11.2073
市政	-11.2073
你是否	-11.2074
抑郁症	-11.2074
岁时	-11.2076
的交易	-11.2079
2%,	-11.208
不至于	-11.208
很有可能	-11.2082
过大	-11.2087
蚂蚁	-11.2088
的表情	-11.2089
的其他	-11.2091
埃及	-11.2091
也开始	-11.2094
钱包	-11.2096
穴位	-11.2096
之余	-11.2099
的职业	-11.2099
眼球	-11.21
拿来	-11.2104
的理想	-11.2106
仕	-11.2106
总觉得	-11.2108
象征	-11.2111
合伙人	-11.2111
游玩	-11.2112
楼下	-11.2112
鲍	-11.2114
这样的人	-11.2115
的数量	-11.2116
的思维	-11.2118
回到家	-11.2119
缺失	-11.2119
说你	-11.212
压制	-11.2122
一般人	-11.2124
炭	-11.2126
900	-11.2127
在全球	-11.2128
想必	-11.2128
导向	-11.213
糕	-11.213
省市	-11.2133
智能手机	-11.2137
来进行	-11.2138
学习的	-11.214
辟	-11.214
开发区	-11.2141
五章	-11.2143
刷新	-11.2146
1%,	-11.2148
三四	-11.2149
没用	-11.2149
貌似	-11.2151
的道路	-11.2152
迷人	-11.2154
追逐	-11.2155
bo	-11.2156
携	-11.2156
雕塑	-11.2157
好感	-11.2157
将是	-11.2158
快速发展	-11.2159
想办法	-11.2161
崇拜	-11.2161
授课	-11.2161
面临的	-11.2161
专属	-11.2162
全村	-11.2163
耽误	-11.2166
完全是	-11.2166
至关重要	-11.2166
色调	-11.2169
存在着	-11.217
国家队	-11.217
会给	-11.2172
众所周知	-11.2172
管理和	-11.2177
第一位	-11.2178
观音	-11.2179
PC	-11.2179
万达	-11.218
应付	-11.218
闽	-11.2181
心得	-11.2182
路过	-11.2184
彰显	-11.2186
惊艳	-11.2187
这件事情	-11.2188
清华大学	-11.2188
一间	-11.2189
干预	-11.2189
护肤品	-11.2191
技术和	-11.2191
遇上	-11.2192
道具	-11.2196
」,	-11.2196
爵	-11.2196
收纳	-11.2196
听过	-11.2197
110	-11.2197
也可能	-11.2198
值得一提的是	-11.2199
大批	-11.22
让您	-11.2201
我心里	-11.2202
哪种	-11.2204
磷	-11.2204
自己去	-11.2208
热线	-11.2208
ol	-11.2212
微软	-11.2215
丢失	-11.2217
旺盛	-11.2217
〔	-11.2218
礼貌	-11.2219
体现在	-11.2221
就此	-11.2222
后面的	-11.2222
中国市场	-11.2223
腊	-11.2224
房企	-11.2224
管理办法	-11.2225
追究	-11.2226
明代	-11.2228
千万别	-11.2229
大神	-11.2231
奖金	-11.2235
衔接	-11.2236
无所	-11.2238
62	-11.2238
旱	-11.2239
不相信	-11.224
皇家	-11.2243
不要太	-11.2244
89	-11.2244
。2019	-11.2244
制约	-11.2244
界的	-11.2245
挺好的	-11.2249
车道	-11.225
退役	-11.2252
进出口	-11.2252
本质上	-11.2253
漠	-11.2253
毛巾	-11.2253
忠诚	-11.2254
莹	-11.2255
咳	-11.2255
原有	-11.2255
低头	-11.2256
保安	-11.2256
着手	-11.2256
狐	-11.2257
这篇	-11.2258
以其	-11.226
有很大的	-11.2262
ed	-11.2263
慢慢地	-11.2263
林业	-11.2264
经常会	-11.2268
了呢	-11.2269
的出现	-11.2269
一味	-11.2269
000	-11.2271
光泽	-11.2271
的程度	-11.2271
缺口	-11.2272
封建	-11.2276
那么你	-11.2278
部落	-11.228
无知	-11.2281
我只是	-11.2281
等工作	-11.2281
成型	-11.2283
疗程	-11.2284
。2017	-11.2286
三千	-11.2289
▁如果	-11.2289
难免	-11.229
绪	-11.229
穷人	-11.2291
ST	-11.2293
司马	-11.2294
数额	-11.2294
类似于	-11.2298
抽烟	-11.2301
又会	-11.2306
地方政府	-11.2307
我看到	-11.2307
历程	-11.2308
几何	-11.2308
膨胀	-11.2309
系数	-11.231
可以从	-11.231
份额	-11.231
加深	-11.2312
薪酬	-11.2317
而去	-11.2317
橙	-11.2318
我不想	-11.2326
也是非常	-11.2328
复苏	-11.2328
念佛	-11.2329
屎	-11.2329
就觉得	-11.2331
褐色	-11.2334
多媒体	-11.2335
归纳	-11.2335
提及	-11.2335
他们是	-11.234
之意	-11.2342
的运动	-11.2344
障	-11.2346
顿时	-11.2349
com	-11.2349
打通	-11.2349
的政治	-11.235
把她	-11.235
俞	-11.2354
树木	-11.2354
上世纪	-11.2356
往往会	-11.2358
踏实	-11.2359
四章	-11.2359
生产线	-11.2359
往来	-11.236
邱	-11.2361
美军	-11.2361
想过	-11.2364
满意的	-11.2365
两名	-11.2365
和小	-11.2367
屡	-11.2371
陕西省	-11.2372
都觉得	-11.2373
翅	-11.2374
79	-11.2375
枸杞	-11.2375
打败	-11.2376
所致	-11.2377
香气	-11.2377
在日本	-11.2377
87	-11.2379
上映	-11.2379
小幅	-11.2381
笑了	-11.2382
led	-11.2383
就会有	-11.2384
管控	-11.2385
意愿	-11.2386
进球	-11.2391
私信	-11.2394
为主的	-11.2394
组织的	-11.2394
右侧	-11.2394
淑	-11.2394
年报	-11.2395
鉴于	-11.2398
落下	-11.2398
两岸	-11.24
夜里	-11.2402
提到的	-11.2403
质地	-11.2404
的患者	-11.2406
娟	-11.2408
正能量	-11.2414
笑着	-11.2416
另有	-11.2418
核算	-11.2425
再一次	-11.2427
恶劣	-11.2428
但我们	-11.2429
我从	-11.243
比较大	-11.243
不论是	-11.2431
高分	-11.2432
何必	-11.2433
但是如果	-11.2435
对他们	-11.2438
贫穷	-11.2442
会长	-11.2442
的眼神	-11.2444
还有就是	-11.2444
的目光	-11.2444
我才	-11.2445
该股	-11.245
戚	-11.2452
石化	-11.2452
禽	-11.2452
工地	-11.2453
加息	-11.2454
但你	-11.2456
栽	-11.246
博弈	-11.2461
售后	-11.2465
背景下	-11.2465
看一下	-11.2465
饲料	-11.2467
伐	-11.2467
现在已经	-11.247
的兴趣	-11.2472
浊	-11.2473
版的	-11.2474
pe	-11.2474
的车	-11.2474
的大小	-11.2476
就来	-11.2478
资产管理	-11.2479
尼亚	-11.248
停车场	-11.2481
唉	-11.2481
是一款	-11.2482
感兴趣的	-11.2482
台阶	-11.2482
得上	-11.2482
之力	-11.2484
不仅仅	-11.2486
较少	-11.2489
源头	-11.2492
开玩笑	-11.2492
苯	-11.2494
农场	-11.2496
左右的	-11.2497
华东	-11.2498
他又	-11.2499
了解一下	-11.25
毛孔	-11.2501
进场	-11.2502
罕见	-11.2502
客户端	-11.2504
延迟	-11.2506
珠海	-11.2507
存放	-11.2507
。」	-11.2508
科技创新	-11.2513
饮水	-11.2513
党委书记	-11.2515
胸部	-11.2515
物价	-11.2518
高山	-11.252
考场	-11.2523
流入	-11.2523
中级	-11.2525
樱	-11.2525
神仙	-11.2526
大臣	-11.253
不代表	-11.2531
第五十	-11.2533
禾	-11.2534
倾斜	-11.2535
实践中	-11.2536
伴侣	-11.2537
最主要的	-11.2537
这部分	-11.2538
在哪	-11.254
建筑面积	-11.254
瀑布	-11.2542
歧视	-11.2542
金牌	-11.2542
场上	-11.2544
日常生活	-11.2544
不怎么	-11.2545
黄瓜	-11.2546
的伤害	-11.2546
我就是	-11.2546
医疗机构	-11.2547
但是你	-11.2547
太空	-11.2548
免疫力	-11.255
巧妙	-11.255
矫正	-11.2551
来回	-11.2553
六章	-11.2554
清爽	-11.2554
之类	-11.2555
这一天	-11.2556
菜单	-11.2557
骨头	-11.2558
也会有	-11.2559
▁a	-11.2561
你去	-11.2562
答主	-11.2562
精细	-11.2562
的费用	-11.2563
实惠	-11.2563
▁饰	-11.2564
技术的	-11.2565
列入	-11.2566
除外	-11.2569
一般都是	-11.2571
唐代	-11.2572
七年	-11.2573
论述	-11.2574
起伏	-11.2575
橡胶	-11.2578
梅花	-11.2579
梵	-11.258
没问题	-11.2581
竞技	-11.2581
如来	-11.2584
窗外	-11.2585
桌子	-11.2587
舍不得	-11.2587
搅	-11.2588
油脂	-11.2588
我记得	-11.2589
临近	-11.2589
再用	-11.259
举例	-11.259
点半	-11.2593
圣诞	-11.2594
整整	-11.2596
富裕	-11.2596
零件	-11.2597
想做	-11.2599
肘	-11.26
匪	-11.2601
碟	-11.2601
我们应该	-11.2602
的痛苦	-11.2603
联络	-11.2603
宪法	-11.2604
相传	-11.2605
被告人	-11.2606
as	-11.2606
特种	-11.261
不停地	-11.261
论证	-11.2611
邑	-11.2613
权限	-11.2614
会说	-11.2614
中毒	-11.2614
签名	-11.2616
月光	-11.2619
扒	-11.2621
一些人	-11.2621
衬	-11.2621
在做	-11.2623
实质	-11.2624
有多大	-11.2628
自豪	-11.2628
恤	-11.2628
有名的	-11.2628
风云	-11.263
文档	-11.2633
样本	-11.2635
73	-11.2636
深刻的	-11.2638
作了	-11.264
倾听	-11.2641
韭菜	-11.2642
有权	-11.2645
作物	-11.2646
不予	-11.2647
浑身	-11.2647
力气	-11.2647
奋	-11.2647
以色列	-11.2648
对称	-11.2654
李白	-11.2654
大概率	-11.2655
侦查	-11.2657
一枚	-11.2658
什么事	-11.2659
的美好	-11.2659
历代	-11.2659
看病	-11.266
的风景	-11.2661
在地上	-11.2661
的主题	-11.2661
如意	-11.2664
多大	-11.2664
3%,	-11.2666
选拔	-11.2666
余人	-11.2668
想知道	-11.2668
时间内	-11.2668
你喜欢	-11.2671
收回	-11.2671
每一天	-11.2673
玩耍	-11.2673
违法行为	-11.2674
很清楚	-11.2674
奖学金	-11.2675
婷	-11.2675
落在	-11.2678
正品	-11.268
句话	-11.268
否	-11.268
好好的	-11.268
昊	-11.2682
廊	-11.2682
当场	-11.2683
海岸	-11.2684
类的	-11.2684
的小伙伴	-11.2685
乐器	-11.2687
梦中	-11.2687
的时刻	-11.2688
辨	-11.2689
还想	-11.2689
汇率	-11.2689
这个词	-11.2689
ID	-11.2689
的实际	-11.269
辖区	-11.269
前三	-11.2691
有这样的	-11.2691
说出来	-11.2692
的业务	-11.2693
计划生育	-11.2693
占地	-11.2693
伴随	-11.2694
不分	-11.2697
录制	-11.2699
变了	-11.27
航班	-11.2702
通胀	-11.2703
地带	-11.2703
契	-11.2706
袭击	-11.2707
的人们	-11.2708
ig	-11.2709
搞定	-11.2709
炒股	-11.2712
的人群	-11.2716
跳舞	-11.2717
口中	-11.2719
仍然是	-11.2719
的一面	-11.2719
累积	-11.2722
不管你	-11.2722
并对	-11.2722
治安	-11.2723
2:	-11.2724
地块	-11.2724
出版社出版的图书	-11.2725
下雨	-11.2725
是一名	-11.2725
专栏	-11.2727
汉字	-11.2729
难点	-11.273
这几天	-11.2731
峡谷	-11.2731
▁[	-11.2732
市人民政府	-11.2733
250	-11.2734
皮肤病	-11.2734
我来	-11.2735
艰苦	-11.2737
是我国	-11.2737
能把	-11.2739
动人	-11.274
生肖	-11.2742
如果你是	-11.2743
栖	-11.2743
画画	-11.2744
车程约	-11.2745
左边	-11.2746
的魅力	-11.2747
反之	-11.2748
反击	-11.275
之事	-11.275
的认可	-11.2751
停留在	-11.2753
试题	-11.2753
不定	-11.2755
风口	-11.2755
全日制	-11.2759
轨迹	-11.2759
八年	-11.276
质押	-11.276
只剩下	-11.2766
无人机	-11.2767
怎	-11.2769
她就	-11.277
本届	-11.2771
可达	-11.2772
集中在	-11.2773
提名	-11.2776
推理	-11.2777
伙	-11.2778
朝廷	-11.2779
前辈	-11.2779
大跌	-11.2779
干货	-11.2784
絮	-11.2785
遗忘	-11.2786
离去	-11.2787
珍贵	-11.2789
短视频	-11.2792
日均线	-11.2793
级的	-11.2794
大爷	-11.2795
而这	-11.2796
马路	-11.2799
衬衫	-11.2799
防疫	-11.28
综	-11.2801
这几个	-11.2802
蓬	-11.2803
最爱	-11.2803
学问	-11.2804
六个	-11.2806
之战	-11.2806
suv	-11.2806
买点	-11.2808
兔子	-11.281
可以考虑	-11.281
扬州	-11.2811
石家庄	-11.2813
业务的	-11.2814
你所	-11.2815
一本书	-11.2818
民俗	-11.2819
召唤	-11.282
传统文化	-11.282
这么做	-11.2825
随即	-11.2825
口号	-11.2828
仓储	-11.2828
民事	-11.283
艘	-11.2832
万亿	-11.2833
▼	-11.2833
水质	-11.2833
冷水	-11.2835
习俗	-11.2835
人流	-11.2837
92	-11.2838
之美	-11.2839
门外	-11.2841
出色的	-11.2842
1996	-11.2843
寂	-11.2844
帅气	-11.2845
在校	-11.2846
射手	-11.2849
不稳定	-11.2849
隔壁	-11.2851
哼	-11.2853
就是为了	-11.2855
25%	-11.2855
身体的	-11.2855
大涨	-11.2856
小微企业	-11.2856
去过	-11.2857
的快乐	-11.2857
跑了	-11.286
这只	-11.286
高等教育	-11.2861
祛	-11.2862
不是说	-11.2862
无可	-11.2862
完成后	-11.2862
血液循环	-11.2863
畏	-11.2863
这一年	-11.2864
好用	-11.2864
在她	-11.2865
庞大的	-11.2866
为中国	-11.2866
很强	-11.2866
桌上	-11.2866
叫我	-11.2867
时段	-11.2868
管理层	-11.2868
范畴	-11.2868
笔记本	-11.287
名牌	-11.2872
也只能	-11.2872
的场景	-11.2872
误解	-11.2872
手册	-11.2873
大幅度	-11.2874
标记	-11.2875
酿	-11.2877
苏宁	-11.2878
重庆市	-11.288
刑法	-11.288
燃料	-11.2884
他认为	-11.2884
仅供参考	-11.2885
共识	-11.2886
薪资	-11.2886
半个	-11.2887
动员	-11.2887
云南省	-11.2887
二战	-11.2888
用自己的	-11.2888
区的	-11.2888
他们会	-11.2888
在职	-11.2888
肾脏	-11.2889
老实	-11.2889
受不了	-11.289
偏偏	-11.2891
养护	-11.2892
甚至还	-11.2895
氮	-11.2895
大家可以	-11.2896
晚饭	-11.2897
国内的	-11.2898
归来	-11.2902
淤	-11.2902
繁殖	-11.2902
藻	-11.2903
都将	-11.2904
手表	-11.2906
邮政	-11.2907
至此	-11.2908
食品安全	-11.2908
冀	-11.2908
折扣	-11.291
文科	-11.2911
邀	-11.2912
什么呢	-11.2912
-8	-11.2914
法庭	-11.2914
脾胃	-11.2915
白色的	-11.2915
不只是	-11.2916
无量	-11.2916
的粉丝	-11.2917
扩散	-11.2918
的人物	-11.2918
精密	-11.2918
谈谈	-11.2919
爱我	-11.292
在里面	-11.2921
绝大部分	-11.2921
保密	-11.2923
很想	-11.2923
并无	-11.2923
的评价	-11.2923
锅中	-11.2925
晚餐	-11.2927
常态	-11.2929
才能够	-11.2929
便会	-11.2929
可谓是	-11.293
的销售	-11.293
车内	-11.2931
加入了	-11.2932
墙上	-11.2932
左侧	-11.2934
万科	-11.2935
还有什么	-11.2935
喉	-11.2936
灼	-11.2937
所需的	-11.2937
循	-11.2939
说一下	-11.294
八字	-11.294
穗	-11.2944
萎缩	-11.2944
不含	-11.2945
这三	-11.2946
活得	-11.2947
有两种	-11.2947
对付	-11.2948
这些年	-11.2949
哉	-11.295
注明	-11.295
起义	-11.2952
僵	-11.2955
在生活中	-11.2956
敦	-11.2956
一次次	-11.2957
万多	-11.2958
倪	-11.2958
汉族	-11.2959
凸显	-11.2959
不知不觉	-11.2962
辱	-11.2963
默认	-11.2964
新款	-11.2965
原子	-11.2966
相差	-11.2966
在他的	-11.2968
不在乎	-11.2969
聊聊	-11.2976
火热	-11.2977
▁第三节	-11.2979
个交易日	-11.2981
就意味着	-11.2982
不确定	-11.2985
镀	-11.2986
其中有	-11.2987
钾	-11.2987
平原	-11.2987
我也是	-11.2988
的优点	-11.2988
永恒	-11.2989
雷达	-11.2989
自愿	-11.2989
地理位置	-11.299
入侵	-11.2991
因子	-11.2991
同时还	-11.2992
奶	-11.2992
局长	-11.2993
这是一种	-11.2993
定律	-11.2994
劳动合同	-11.2998
珊	-11.3
•	-11.3001
的局面	-11.3001
满满	-11.3002
新产品	-11.3004
专业化	-11.3006
白糖	-11.3007
走的	-11.3008
1-	-11.3008
大招	-11.3009
关系的	-11.3009
太极	-11.3012
新品	-11.3014
涂抹	-11.3022
增值	-11.3022
二十年	-11.3023
如今的	-11.3024
佑	-11.3027
稳步	-11.3027
别说	-11.3027
用过	-11.303
怎么看	-11.303
邮箱	-11.303
头顶	-11.3032
给别人	-11.3033
只要有	-11.3033
名家	-11.3035
mo	-11.3036
征服	-11.3036
消极	-11.3037
的心灵	-11.3038
气味	-11.304
愣	-11.3041
叠加	-11.3042
明月	-11.3043
不同于	-11.3043
残疾人	-11.3045
拦	-11.3046
如果在	-11.3048
他们都	-11.3048
一圈	-11.3054
香蕉	-11.3056
悠	-11.306
相声	-11.306
间隔	-11.3061
你应该	-11.3063
男的	-11.3064
大蒜	-11.3064
题型	-11.3065
零部件	-11.3065
拨打	-11.3066
永不	-11.3067
年限	-11.3067
几乎没有	-11.3067
太极拳	-11.307
优异	-11.307
清算	-11.3071
早早	-11.3073
教导	-11.3079
市场化	-11.3082
备受	-11.3082
沙滩	-11.3082
赠送	-11.3083
社群	-11.3083
建国	-11.3085
实物	-11.3088
的热情	-11.3088
简化	-11.3091
骨干	-11.3091
海水	-11.3091
周围的	-11.3092
谁能	-11.3095
换成	-11.3096
缘分	-11.3097
出名	-11.3098
莫名其妙	-11.3099
mi	-11.3099
数值	-11.31
煤矿	-11.31
右边	-11.31
不建议	-11.3102
品尝	-11.3103
最少	-11.3103
管理局	-11.3103
字体	-11.3104
展会	-11.3104
窃	-11.3107
中等	-11.3108
医学院	-11.3108
往事	-11.311
74	-11.311
】:	-11.311
不着	-11.3111
网友们	-11.3113
陪着	-11.3113
患有	-11.3113
在那	-11.3114
反抗	-11.3115
联系方式	-11.3115
必将	-11.3116
七八	-11.3119
炎症	-11.312
去看看	-11.312
完全不	-11.3121
避开	-11.3122
行使	-11.3124
永远是	-11.3125
的第一个	-11.3127
它们的	-11.3127
回避	-11.3128
见解	-11.3129
杀手	-11.3131
公子	-11.3133
整个人	-11.3133
自私	-11.3133
维权	-11.3134
不要再	-11.3138
拼多多	-11.3142
生命中	-11.3142
学的	-11.3144
我以为	-11.3145
留下的	-11.3145
充足的	-11.3146
意向	-11.3147
不远	-11.3149
往上	-11.315
出差	-11.3151
经典的	-11.3152
为我	-11.3152
失落	-11.3153
门前	-11.3153
以下是	-11.3156
合金	-11.3156
不太好	-11.3157
闻名	-11.3159
职业生涯	-11.3159
短暂	-11.3161
含义	-11.3162
缓缓	-11.3163
致使	-11.3163
一带一路	-11.3164
不开心	-11.3164
人际关系	-11.3165
对你的	-11.3166
剧烈	-11.3167
到时候	-11.3168
基建	-11.3168
佛陀	-11.3168
金价	-11.3169
喻	-11.3169
亥	-11.3169
这些都	-11.317
俗话说	-11.317
的增长	-11.3173
固然	-11.3174
喝水	-11.3174
理事会	-11.3175
餐馆	-11.3175
戌	-11.3177
即时	-11.3177
少数民族	-11.3179
5%,	-11.3181
屠	-11.3181
新一轮	-11.3183
亲近	-11.3184
加之	-11.3186
的英雄	-11.3186
的客户	-11.3189
发掘	-11.3189
小麦	-11.319
痘	-11.3191
不佳	-11.3192
......	-11.3192
售后服务	-11.3192
说的是	-11.3193
大股东	-11.3193
见识	-11.3194
梳	-11.3195
现实的	-11.3195
动脉	-11.3196
虽然是	-11.3196
婴	-11.3198
排查	-11.3198
男孩子	-11.3199
一点都不	-11.3199
觉得很	-11.32
指甲	-11.3202
会发现	-11.3203
祠	-11.3203
手游	-11.3204
做到了	-11.3204
几分	-11.3204
一对一	-11.3204
下调	-11.3206
耶稣	-11.3206
客运	-11.3207
pa	-11.3208
我们一起	-11.3208
线的	-11.3209
纵横	-11.321
最强	-11.3211
更何况	-11.3212
生活方式	-11.3212
抄袭	-11.3213
的法律	-11.3214
长大了	-11.3216
工作经验	-11.3221
托管	-11.3224
欧阳	-11.3225
看我	-11.3225
的商品	-11.3227
流行的	-11.3228
美洲	-11.323
炫	-11.3234
名义	-11.3235
没那么	-11.3236
航空公司	-11.3237
突发	-11.3238
列表	-11.3239
确诊	-11.3242
信赖	-11.3243
下半年	-11.3245
开阔	-11.3245
佩服	-11.3245
这样才能	-11.3245
语气	-11.3246
时间和	-11.3247
疮	-11.3247
或其他	-11.3248
海报	-11.3248
目的是	-11.3249
地形	-11.325
0°	-11.325
最基本的	-11.325
▁参考资料	-11.3253
拿了	-11.3256
套房	-11.3256
马来西亚	-11.3257
停留	-11.3257
器材	-11.3259
榜样	-11.3259
恶化	-11.3259
当年的	-11.326
子孙	-11.3261
主人公	-11.3264
所用	-11.3264
导致的	-11.3264
背诵	-11.3264
表白	-11.3269
不难	-11.3271
称呼	-11.3272
包围	-11.3273
经络	-11.3273
古镇	-11.3276
禹	-11.3276
强迫	-11.3278
状态下	-11.3279
黑龙江	-11.3283
衣物	-11.3283
嫉妒	-11.3284
头疼	-11.3286
的反应	-11.329
笑容	-11.3291
推销	-11.3292
和孩子	-11.3294
我们现在	-11.3295
机电	-11.3296
去买	-11.3297
侵	-11.3297
营业收入	-11.3299
天津市	-11.3301
就更	-11.3301
哪怕是	-11.3302
分化	-11.3302
之初	-11.3302
意图	-11.3303
毕竟是	-11.3305
真爱	-11.3305
紫色	-11.3307
的美	-11.3307
操纵	-11.3308
花椒	-11.3308
民办	-11.3312
虞	-11.3312
最后一个	-11.3313
上限	-11.3314
在我看来	-11.3314
络	-11.3314
移植	-11.332
老化	-11.332
需要注意	-11.3321
尾巴	-11.3321
拼搏	-11.3321
占地面积	-11.3324
满满的	-11.3324
联合会	-11.3324
毒品	-11.3324
对我说	-11.3325
戊	-11.3327
钠	-11.3329
不会再	-11.3329
叙	-11.333
基础知识	-11.333
钓鱼	-11.3331
关注的	-11.3331
三月	-11.3332
出货	-11.3332
观光	-11.3334
哒	-11.3336
的管理	-11.3336
套餐	-11.3338
问了	-11.3338
这个行业	-11.3338
尽情	-11.3338
就跟	-11.3339
找一个	-11.3341
脱发	-11.3342
奎	-11.3342
之所	-11.3342
经营者	-11.3343
的画面	-11.3344
的能量	-11.3345
下单	-11.3346
丢了	-11.3346
真空	-11.3347
AR	-11.3347
多方	-11.3348
这首歌	-11.3348
我不会	-11.3349
电竞	-11.3352
站点	-11.3352
最难	-11.3353
算了	-11.3354
名额	-11.3355
高原	-11.3355
再看	-11.3356
啪	-11.3357
半天	-11.3357
国债	-11.3361
的歌	-11.3362
一朵	-11.3363
仅为	-11.3364
撩	-11.3364
岚	-11.3364
西医	-11.3365
不给	-11.3365
服务员	-11.3366
了他的	-11.3367
几乎是	-11.3369
先把	-11.337
根本没有	-11.337
大豆	-11.3371
放开	-11.3372
","	-11.3374
更要	-11.3374
几个人	-11.3375
初始	-11.3376
一瞬间	-11.3377
的皮肤	-11.3377
不停的	-11.3379
最美	-11.338
-20	-11.3381
椅子	-11.3382
现在是	-11.3384
优美	-11.3384
涂料	-11.3386
新陈代谢	-11.3387
村委会	-11.3387
先天	-11.3388
准则	-11.3391
的眼光	-11.3391
公司在	-11.3391
百合	-11.3394
▁b	-11.3394
蔓延	-11.3394
签字	-11.3394
自己做	-11.3394
了出来	-11.3395
搜索引擎	-11.3395
产出	-11.3396
吃到	-11.34
的决定	-11.3401
街上	-11.3407
何况	-11.3409
堵塞	-11.341
弧	-11.3411
不合理	-11.3413
倩	-11.3414
优越	-11.3415
一个新的	-11.3415
盒子	-11.3416
表格	-11.3417
脱落	-11.3419
前端	-11.342
颤	-11.342
连载	-11.3421
妥协	-11.3422
机票	-11.3423
导致了	-11.3423
报复	-11.3423
其间	-11.3425
婚后	-11.3425
局势	-11.3426
时不时	-11.3428
卜	-11.3428
发布会	-11.3429
建议你	-11.343
副会长	-11.3431
登场	-11.3431
谈论	-11.3435
供养	-11.3437
诸如	-11.3438
的那些	-11.3438
理科	-11.3441
手感	-11.3441
团购	-11.3445
的土地	-11.3445
脸部	-11.3449
本着	-11.3449
淡淡的	-11.3451
前段时间	-11.3452
茜	-11.3452
先是	-11.3454
常说	-11.3458
锈	-11.3459
新娘	-11.3462
da	-11.3464
触及	-11.3465
磕	-11.3467
政协	-11.3468
的年轻人	-11.3468
涩	-11.3468
大一	-11.3469
温暖的	-11.3471
嘲笑	-11.3475
全球化	-11.3476
翅膀	-11.3476
肢	-11.3478
再多	-11.3481
各自的	-11.3481
粗糙	-11.3481
风暴	-11.3482
怎么说	-11.3482
承载	-11.3483
编号	-11.3483
在过去	-11.3483
实例	-11.3487
的智慧	-11.3487
物业管理	-11.3488
堆积	-11.3488
的全部	-11.349
丛书	-11.3492
自称	-11.3492
与中国	-11.3495
呕吐	-11.3496
喝了	-11.3496
只要是	-11.3498
的走势	-11.3499
耕地	-11.3499
是一部	-11.3499
哪家	-11.35
亨	-11.35
短期内	-11.3501
你可能	-11.3506
词语	-11.3507
量子	-11.3507
-10	-11.3507
因为在	-11.3507
回了	-11.3508
抢救	-11.3511
违背	-11.3513
年起	-11.3514
主营业务	-11.3514
家用	-11.3516
不合格	-11.3516
中东	-11.3516
市公安局	-11.3518
青海	-11.3518
廖	-11.3518
错误的	-11.3519
和管理	-11.352
群里	-11.3526
肠道	-11.3528
批判	-11.3528
也算	-11.353
接受了	-11.3531
感觉自己	-11.3532
不低于	-11.3532
但它	-11.3533
油腻	-11.3536
局局长	-11.3537
袍	-11.3538
枕头	-11.3539
攒	-11.354
馒头	-11.354
科幻	-11.354
最长	-11.3541
魄	-11.3543
全区	-11.3543
饮酒	-11.3543
表述	-11.3545
触发	-11.3547
她也	-11.3551
的工具	-11.3552
接纳	-11.3553
寝室	-11.3553
子宫	-11.3555
没有必要	-11.3555
但不	-11.3556
的材料	-11.3558
多为	-11.3559
最适合	-11.3559
低下	-11.3559
只有在	-11.3559
适度	-11.3559
的内心	-11.356
的生产	-11.3561
美团	-11.3561
查找	-11.3562
古老的	-11.3564
三维	-11.3566
靴	-11.357
本身就是	-11.3571
那我	-11.3572
新华	-11.3573
-3	-11.3573
的妻子	-11.3575
收到了	-11.3576
核实	-11.3578
不掉	-11.3578
的情形	-11.3578
较长	-11.3579
简直是	-11.3581
主场	-11.3582
水面	-11.3583
顶部	-11.3584
这两种	-11.3585
本身的	-11.3585
轻微	-11.3589
的结构	-11.3592
章程	-11.3594
桌面	-11.3595
完全没有	-11.3595
终结	-11.3598
广泛的	-11.3599
百货	-11.3599
烹饪	-11.36
理论上	-11.3601
卫视	-11.3604
诏	-11.3605
降价	-11.3605
厂房	-11.3606
赔付	-11.3608
游览	-11.3609
点多	-11.361
遗产	-11.361
言论	-11.3611
干了	-11.3611
修理	-11.3612
西装	-11.3612
自制	-11.3619
无敌	-11.3619
区内	-11.3619
横向	-11.3619
想念	-11.362
的学校	-11.362
不曾	-11.3623
院士	-11.3624
艰辛	-11.3624
负荷	-11.3625
专业知识	-11.3627
惊人	-11.3628
北京时间	-11.3628
不失	-11.3628
叮	-11.3629
如果能	-11.3629
捞出	-11.363
苦难	-11.363
自动驾驶	-11.3633
93	-11.3633
奔跑	-11.3636
61	-11.3637
高潮	-11.3637
坟	-11.3638
体温	-11.3641
不可思议	-11.3645
一号	-11.3646
推送	-11.3646
概况	-11.3646
的经典	-11.3647
银河	-11.365
刘邦	-11.3651
最小	-11.3655
践行	-11.3656
发展趋势	-11.3657
朝阳	-11.3657
诱	-11.3657
交通事故	-11.3658
这不	-11.3659
复印件	-11.3662
今晚	-11.3662
尉	-11.3665
为代表的	-11.3665
三点	-11.3666
譬如	-11.3668
复活	-11.3668
兑换	-11.367
样式	-11.367
本身就	-11.3671
带你	-11.3671
保费	-11.3672
奥迪	-11.3674
)(	-11.3675
赶上	-11.3676
半个月	-11.3676
排行榜	-11.3677
合一	-11.3678
对了	-11.3679
年中国	-11.368
南山	-11.3681
放缓	-11.3681
的进步	-11.3683
不为	-11.3685
本能	-11.3687
但还是	-11.3687
耻	-11.3687
主打	-11.3688
晖	-11.3689
还是在	-11.369
恋人	-11.3691
不死	-11.3693
表面上	-11.3694
治疗方法	-11.3696
青山	-11.3698
届时	-11.3699
最初的	-11.3701
久了	-11.3703
伸出	-11.3704
呵护	-11.3706
破碎	-11.3707
痕迹	-11.3707
旨	-11.3709
乖	-11.371
贯彻落实	-11.3714
跟她	-11.3715
日本的	-11.3716
野生	-11.3718
我最	-11.3719
发展规划	-11.3721
高等	-11.3723
或许是	-11.3723
变现	-11.3725
衰老	-11.3725
假装	-11.3725
▁S	-11.3726
开支	-11.3726
达标	-11.3727
GDP	-11.3728
商贸	-11.3732
做的事	-11.3732
那份	-11.3735
不仅可以	-11.3739
疏通	-11.3739
拂	-11.3742
什么东西	-11.3742
为本	-11.3743
打着	-11.3743
田园	-11.3744
绽放	-11.3744
把这个	-11.3744
开户	-11.3745
发烧	-11.3745
的课程	-11.3746
改正	-11.3748
猴子	-11.3748
拢	-11.3748
师兄	-11.3748
划算	-11.375
梦幻	-11.3752
副总裁	-11.3753
组织实施	-11.3753
按规定	-11.3754
家公司	-11.3755
也得	-11.3755
有何	-11.3756
投影	-11.3757
酮	-11.3758
人大常委会	-11.3758
叙述	-11.3758
凸	-11.3758
大奖	-11.3758
下手	-11.3758
全场	-11.3759
脸色	-11.3759
膝盖	-11.376
蓝天	-11.376
詹	-11.376
必需	-11.3761
直销	-11.3761
里面有	-11.3762
山西省	-11.3762
1995	-11.3763
泳	-11.3763
神奇的	-11.3764
帖子	-11.3765
不影响	-11.3766
不能再	-11.3769
杀了	-11.3769
与之	-11.377
人们对	-11.377
理工大学	-11.3771
五月	-11.3774
冷漠	-11.3774
二年	-11.3775
6%,	-11.3775
较好的	-11.3775
双眼	-11.3777
帮扶	-11.3777
大家的	-11.378
今年以来	-11.3781
接入	-11.3781
定点	-11.3781
面料	-11.3782
平台上	-11.3782
-6	-11.3785
降温	-11.3785
也不错	-11.3787
仪表	-11.3787
简书	-11.3787
菩提	-11.3788
原告	-11.379
原来是	-11.3792
不重要	-11.3792
首选	-11.3793
情景	-11.3794
的人员	-11.3794
馨	-11.3794
好不容易	-11.3795
的信心	-11.3795
活在	-11.3797
”;	-11.3802
俗称	-11.3803
只是在	-11.3804
抗战	-11.3805
老头	-11.3805
不断提高	-11.3808
多万	-11.3809
蒲	-11.381
定时	-11.3812
走访	-11.3813
金银	-11.3815
要不	-11.3816
货车	-11.3817
像个	-11.3818
鲜明	-11.382
爱吃	-11.3822
天涯	-11.3822
出一个	-11.3825
颠覆	-11.3826
人才培养	-11.3826
能够在	-11.383
皇上	-11.3831
尧	-11.3832
孤单	-11.3834
阿拉伯	-11.3834
胆固醇	-11.3834
你对	-11.3835
写着	-11.3835
污水	-11.3835
号称	-11.3837
发达国家	-11.3839
荫	-11.3841
这样的话	-11.3841
这是因为	-11.3843
媚	-11.3843
一到	-11.3844
折叠	-11.3845
书店	-11.3847
烧烤	-11.3848
但她	-11.3849
跌破	-11.3851
84	-11.3851
相识	-11.3851
下图	-11.3852
立案	-11.3852
三亚	-11.3853
绩	-11.3853
一个小时	-11.3854
米饭	-11.3855
用法	-11.3856
房地产开发	-11.3857
县政府	-11.3862
精美	-11.3863
与否	-11.3864
束缚	-11.3864
大面积	-11.3865
指望	-11.3866
可持续发展	-11.3867
肃	-11.3869
抗日	-11.3869
倚	-11.3871
坐标	-11.3872
葫芦	-11.3872
排骨	-11.3875
不利于	-11.3875
犯罪嫌疑人	-11.3878
垮	-11.3879
务必	-11.388
次会议	-11.3881
补水	-11.3885
苔	-11.3886
检察	-11.3887
市长	-11.3888
但其实	-11.389
保卫	-11.3891
附件	-11.3894
窦	-11.3894
奇葩	-11.3895
太原	-11.3895
汇总	-11.3897
火焰	-11.3897
美股	-11.3899
的广告	-11.3899
析	-11.3901
芒	-11.3903
就读	-11.3903
想象的	-11.3905
掀起	-11.3906
▁刘	-11.3906
充分利用	-11.3908
吃得	-11.3908
姥姥	-11.3909
共鸣	-11.391
只不过是	-11.3911
游戏中	-11.3912
聪	-11.3915
纳米	-11.3916
四五	-11.3917
最喜欢	-11.3919
台词	-11.392
万亿元	-11.3921
发光	-11.3921
利亚	-11.3923
▁s	-11.3925
债权	-11.3925
橘	-11.3926
一直都	-11.3926
这三个	-11.3928
硬盘	-11.3929
迎来了	-11.3929
ca	-11.3931
渗	-11.3931
酉	-11.3933
必不可少	-11.3933
多位	-11.3934
偿还	-11.3934
现已	-11.3936
反转	-11.3936
科创板	-11.3936
更改	-11.3937
万辆	-11.3939
刹	-11.394
二十四	-11.3942
歌唱	-11.3942
移动互联网	-11.3942
姿态	-11.3944
音响	-11.3946
如果你想	-11.3946
宰	-11.3947
幼稚	-11.3949
宽度	-11.3949
进取	-11.3949
超过了	-11.3953
来不及	-11.3953
恰好	-11.3954
做起	-11.3954
晚期	-11.3954
踏上	-11.3956
压迫	-11.3956
元年	-11.396
半岛	-11.396
今生	-11.3961
层层	-11.3962
这个世界上	-11.3962
药业	-11.3963
棉花	-11.3964
菊花	-11.3964
看电视	-11.3966
前提是	-11.3967
排毒	-11.3967
各部门	-11.3967
爱的人	-11.3969
8000	-11.397
从小就	-11.3971
资本主义	-11.3972
技艺	-11.3972
微生物	-11.3972
女王	-11.3972
终极	-11.3976
房东	-11.3976
这些东西	-11.3976
木材	-11.3977
居家	-11.3977
北美	-11.3978
CD	-11.3978
劈	-11.3979
数据分析	-11.3979
点燃	-11.398
反过来	-11.3982
报酬	-11.3982
航母	-11.3984
金色	-11.3984
年至	-11.3984
出生于	-11.3984
的研发	-11.3985
人脉	-11.3985
错过了	-11.3987
遍布	-11.3987
同等	-11.3988
那一刻	-11.3988
劣	-11.3989
江西省	-11.3989
打动	-11.399
上大学	-11.3991
作曲	-11.3991
慎重	-11.3993
精彩的	-11.3995
宁夏	-11.3996
的定义	-11.3998
两句	-11.3999
周岁	-11.3999
制造商	-11.4001
蜘蛛	-11.4003
是怎样	-11.4005
纸上	-11.4006
不是你	-11.4007
秘诀	-11.4011
更强	-11.4013
求职	-11.4016
让别人	-11.4018
大部分人	-11.4018
儒家	-11.4022
片区	-11.4023
怜	-11.4024
标注	-11.4025
又一次	-11.4027
也是很	-11.4028
为主题	-11.4029
商户	-11.4029
希望你	-11.4032
宝宝的	-11.4033
合影	-11.4035
第三次	-11.4036
都想	-11.4042
能使	-11.4042
心目中	-11.4043
减速	-11.4043
花朵	-11.4044
把手	-11.4046
管理人员	-11.4047
这方面	-11.4049
菱	-11.4049
在我国	-11.4049
表扬	-11.4049
眼光	-11.405
寻常	-11.405
拉着	-11.405
用量	-11.4051
外婆	-11.4051
建设项目	-11.4052
社会上	-11.4054
妇科	-11.4055
最早的	-11.4056
价钱	-11.4058
不容	-11.4058
大学毕业	-11.4061
”,“	-11.4061
放假	-11.4061
不好的	-11.4062
低点	-11.4065
上师	-11.4066
不值得	-11.4068
认为是	-11.4074
很强的	-11.4074
放进	-11.4077
83	-11.4078
大米	-11.4079
每位	-11.4079
哨	-11.408
嫌弃	-11.408
一种是	-11.4081
面的	-11.4082
一刻	-11.4083
掌握了	-11.4086
不是一个	-11.4087
四种	-11.4087
汇聚	-11.4088
巨人	-11.4089
物料	-11.4089
细细	-11.409
晋升	-11.409
坚信	-11.4091
接下来的	-11.4092
不满意	-11.4093
弱势	-11.4096
网点	-11.4096
而对于	-11.4097
当然也	-11.4099
死去	-11.4099
外来	-11.41
我爱你	-11.41
称赞	-11.4101
贵人	-11.4102
得住	-11.4104
导游	-11.4105
三观	-11.4105
极致	-11.4106
诉求	-11.4106
前任	-11.4107
薄弱	-11.4108
旋律	-11.4109
在心里	-11.4109
头晕	-11.4111
插入	-11.4111
个人觉得	-11.4112
液压	-11.4113
看电影	-11.4114
处理器	-11.4115
程序员	-11.4115
的竞争	-11.4116
誓	-11.4117
安全的	-11.4117
捕捉	-11.4121
你就会	-11.4124
空头	-11.4125
赶快	-11.4127
骨骼	-11.4128
条件的	-11.4128
山药	-11.4129
十个	-11.4129
可以根据	-11.4129
太少	-11.4129
ne	-11.4132
心脏病	-11.4135
如果想	-11.4135
煲	-11.4136
惑	-11.4136
交代	-11.4136
美妙	-11.4138
观测	-11.4138
备注	-11.4139
万事	-11.414
夕阳	-11.414
厢	-11.4142
值得注意的是	-11.4144
好听	-11.4144
非常高	-11.4146
一瓶	-11.4146
变换	-11.4146
打野	-11.4147
也只有	-11.4147
方可	-11.4149
瞧	-11.415
脚下	-11.4151
徘徊	-11.4151
反映了	-11.4151
章节	-11.4152
就好像	-11.4153
子弹	-11.4156
文案	-11.4156
欧元	-11.4156
上车	-11.4157
科学研究	-11.4158
全书	-11.416
可以做	-11.4161
一年的	-11.4162
何处	-11.4162
四肢	-11.4164
名师	-11.4164
能找到	-11.4166
我跟	-11.4166
邹	-11.4166
保证金	-11.4167
百八十	-11.4168
一件事情	-11.4168
▁B	-11.4169
锅里	-11.4169
可是我	-11.4169
讲师	-11.4169
的重大	-11.4172
清明	-11.4173
▁陈	-11.4173
肋	-11.4173
而且是	-11.4174
之作	-11.4175
哥们	-11.4176
翰	-11.4178
宁愿	-11.4178
探究	-11.418
世界各地	-11.4181
撰	-11.4181
在学习	-11.4182
当时我	-11.4183
会引起	-11.4184
特别好	-11.4184
叛	-11.4185
美学	-11.4187
你必须	-11.4189
远处	-11.4191
丰胸	-11.4194
小人	-11.4195
人之	-11.4196
聘用	-11.4196
人品	-11.42
企业管理	-11.4204
的节奏	-11.4204
微商	-11.4204
每次都	-11.4205
因其	-11.4207
放手	-11.4207
尤其是在	-11.4207
判定	-11.4209
那段	-11.421
的人来说	-11.4211
管理制度	-11.4212
可行	-11.4217
的脚步	-11.4218
个人的	-11.4218
不平	-11.422
自己是	-11.4221
后代	-11.4221
动能	-11.4221
免责声明	-11.4222
渲染	-11.4223
老爸	-11.4223
舒适的	-11.4224
高贵	-11.4225
复兴	-11.4226
博文	-11.4227
第一批	-11.4228
一贯	-11.423
的笑容	-11.4231
但又	-11.4231
翻炒	-11.4232
发展战略	-11.4232
顺着	-11.4233
交谈	-11.4236
搏	-11.4236
领先的	-11.4237
配有	-11.4239
变得更	-11.424
委员会委员	-11.4241
的个人	-11.4242
持仓	-11.4242
子里	-11.4243
彩虹	-11.4243
可能有	-11.4244
主要包括	-11.4244
歌声	-11.4246
非常多	-11.425
如果要	-11.425
的利润	-11.4251
一线城市	-11.4253
重要的是	-11.4254
分区	-11.4254
泰山	-11.4255
叶片	-11.4258
习题	-11.426
深情	-11.426
驶	-11.4261
在自己	-11.4261
凝聚	-11.4264
世俗	-11.4267
在使用	-11.4267
洗衣	-11.4269
呼吁	-11.427
致富	-11.4271
净值	-11.4272
城里	-11.4272
详	-11.4273
无论如何	-11.4275
op	-11.4275
81	-11.4276
究	-11.4276
樊	-11.4277
1992	-11.428
一步步	-11.4281
均价	-11.4283
我开始	-11.4283
开辟	-11.4284
九年	-11.4286
开着	-11.4286
纽	-11.4287
浴室	-11.4287
71	-11.429
后勤	-11.429
事迹	-11.4291
靠着	-11.4292
捐款	-11.4293
求助	-11.4293
叙利亚	-11.4293
高价	-11.4294
光荣	-11.4295
残留	-11.4297
走廊	-11.4299
状元	-11.4303
的手段	-11.4303
不惜	-11.4304
争吵	-11.4307
双向	-11.431
一般情况下	-11.4311
好吃的	-11.4311
眼袋	-11.4312
色素	-11.4312
很高兴	-11.4314
生活习惯	-11.4314
想起来	-11.4314
勋	-11.4315
本科生	-11.4318
生产力	-11.4322
沫	-11.4324
认为自己	-11.4325
和技术	-11.4325
窥	-11.4326
墨西哥	-11.4326
该项目	-11.4327
就有了	-11.4328
也应该	-11.4329
必有	-11.433
演变	-11.433
水电	-11.433
碍	-11.4331
很多的	-11.4332
低温	-11.4332
魁	-11.4333
十分钟	-11.4333
带到	-11.4334
转动	-11.4335
能有	-11.4335
往后	-11.4335
背叛	-11.4335
监理	-11.4335
禁忌	-11.4336
什么叫	-11.4336
凹	-11.4338
我却	-11.434
热血	-11.434
畅通	-11.4341
背部	-11.4341
偿	-11.4342
甲状腺	-11.4342
股民	-11.4344
约翰	-11.4345
力争	-11.4345
中途	-11.4345
不看	-11.4347
吉他	-11.4349
过多的	-11.4351
屑	-11.4352
应在	-11.4352
毁灭	-11.4353
后来我	-11.4353
自己在	-11.4355
通过对	-11.4356
不合	-11.4358
影响了	-11.4358
女方	-11.436
废物	-11.436
副主席	-11.436
该校	-11.436
唐朝	-11.4361
侨	-11.4362
片段	-11.4362
不舍	-11.4363
海边	-11.4363
毛利率	-11.4364
理事	-11.4364
澡	-11.4365
灿	-11.4365
现在我	-11.4365
国土	-11.4365
阵地	-11.4365
调味	-11.4368
的愿望	-11.4368
力学	-11.4371
经纪人	-11.4372
阳气	-11.4374
热搜	-11.4375
的勇气	-11.4376
新颖	-11.4377
港股	-11.4378
要从	-11.4379
长辈	-11.4379
价值的	-11.4379
欺	-11.438
94	-11.4382
但从	-11.4382
新西兰	-11.4383
男方	-11.4383
期权	-11.4384
一般都	-11.4385
没有一个	-11.4385
雨水	-11.4386
还不是	-11.4387
的背后	-11.4388
你以为	-11.4389
4%,	-11.439
菲律宾	-11.4391
盯	-11.4393
想不到	-11.4394
沙特	-11.4396
还说	-11.4396
就是我们	-11.4397
举办的	-11.4398
精湛	-11.4399
82	-11.44
博士学位	-11.4401
食欲	-11.4401
设备的	-11.4402
了很久	-11.4402
的合作	-11.4403
把这些	-11.4404
加持	-11.4405
实体经济	-11.4406
辽宁省	-11.4407
不相	-11.4407
掏	-11.4408
环球	-11.4408
想说	-11.4409
在国外	-11.4409
本市	-11.441
的范围	-11.441
用电	-11.4413
管制	-11.4413
在同一	-11.4414
启示	-11.4417
趣味	-11.4417
灰尘	-11.4417
加强对	-11.4419
增持	-11.442
华北	-11.442
产业化	-11.442
现行	-11.4421
玩了	-11.4422
代表着	-11.4422
源自	-11.4422
楼上	-11.4422
彪	-11.4422
这才	-11.4422
郁闷	-11.4423
见了	-11.4423
争论	-11.4423
得太	-11.4423
常委	-11.4424
冰雪	-11.4424
年以上	-11.4424
病变	-11.4431
丨	-11.4432
太后	-11.4432
主线	-11.4432
是被	-11.4433
筹备	-11.4434
管理部门	-11.4435
花开	-11.4435
鸡汤	-11.4435
因果	-11.4436
及以上	-11.4437
二手房	-11.4438
测评	-11.4439
时节	-11.444
上图	-11.444
舞台上	-11.444
的一大	-11.4441
的欲望	-11.4441
喜欢吃	-11.4442
为核心	-11.4443
打游戏	-11.4443
社会保险	-11.4447
出品	-11.4447
本赛季	-11.4448
及相关	-11.4449
如果他	-11.4452
防火	-11.4453
身上的	-11.4453
方言	-11.4453
使用了	-11.4454
乐视	-11.4454
纯净	-11.4456
只能是	-11.4459
创作的	-11.446
陈列	-11.446
嫂	-11.446
专业技术	-11.4461
填充	-11.4461
sa	-11.4463
整车	-11.4465
午餐	-11.4465
和朋友	-11.4466
中国古代	-11.4467
命中	-11.4467
会成为	-11.4468
房贷	-11.4468
社会科学	-11.447
有无	-11.447
最快	-11.4471
壹	-11.4471
恐慌	-11.4472
颁发	-11.4473
着他	-11.4474
操控	-11.4474
衣柜	-11.4475
遇到的	-11.4475
在香港	-11.4475
银行卡	-11.4476
巳	-11.4479
管理系统	-11.448
媒介	-11.4481
护照	-11.4482
洗衣机	-11.4483
虽然我	-11.4484
心想	-11.4484
抚养	-11.4485
流泪	-11.4485
ur	-11.4488
分辨	-11.4489
残酷	-11.4491
色泽	-11.4492
神圣	-11.4493
澜	-11.4493
得起	-11.4495
解说	-11.4496
最美的	-11.4497
虑	-11.4497
高清	-11.4498
安卓	-11.4499
变得更加	-11.4499
富人	-11.45
一直到	-11.45
瓶颈	-11.4505
襄	-11.4506
瑞典	-11.4507
出具	-11.4508
操作系统	-11.4508
集团公司	-11.4508
不便	-11.4509
中医药	-11.451
这样就	-11.451
的最高	-11.4512
迫	-11.4514
打架	-11.4514
复古	-11.4514
的状况	-11.4515
北海	-11.4515
湿度	-11.4516
套装	-11.4517
干活	-11.4518
是不能	-11.4519
但是我们	-11.4519
口服	-11.4519
的分析	-11.452
俯	-11.4523
深深的	-11.4523
的思路	-11.4526
新房	-11.4527
我曾经	-11.4528
这话	-11.453
带头	-11.4533
妍	-11.4536
当选	-11.4536
平民	-11.4538
我所	-11.4538
早年	-11.4539
包子	-11.4539
个大	-11.4539
家庭的	-11.4539
调料	-11.454
消费者的	-11.454
业态	-11.4544
皓	-11.4544
年上半年	-11.4545
抓好	-11.4547
然后在	-11.4547
三等奖	-11.4548
清凉	-11.4549
xx	-11.455
台风	-11.4551
换来	-11.4551
多功能	-11.4553
冶	-11.4553
严厉	-11.4553
暴跌	-11.4553
峡	-11.4553
并不会	-11.4554
■	-11.4554
的考生	-11.4555
不乏	-11.4555
小姑娘	-11.4555
分钟后	-11.4555
云计算	-11.4556
口水	-11.4556
低迷	-11.4556
阴谋	-11.4557
货运	-11.4558
加分	-11.4559
市场需求	-11.456
ga	-11.4561
指纹	-11.4564
公元前	-11.4566
撇	-11.4568
ia	-11.4568
助手	-11.4569
汽油	-11.457
人说	-11.457
服从	-11.4573
清晰的	-11.4574
对人体	-11.4574
分钟左右	-11.4575
寇	-11.4575
癸	-11.4576
知识的	-11.4577
料酒	-11.4577
%	-11.4578
现有的	-11.458
不理	-11.458
配上	-11.4581
固定的	-11.4585
艇	-11.4586
面临着	-11.4586
畸形	-11.4586
麻醉	-11.4588
商会	-11.4588
晚年	-11.4591
。2016	-11.4592
我省	-11.4592
伽	-11.4593
农历	-11.4594
和服务	-11.4594
高尔夫	-11.4595
的建设	-11.4595
辩论	-11.4596
分行	-11.4596
巡视	-11.4599
两周	-11.4599
奢侈品	-11.4602
城堡	-11.4602
功课	-11.4604
是国内	-11.4604
是一样的	-11.4608
听听	-11.4608
人寿	-11.4611
高度重视	-11.4612
图中	-11.4612
8%,	-11.4613
特质	-11.4614
挺好	-11.4615
不属于	-11.4617
胺	-11.4619
财物	-11.462
逃离	-11.462
打扰	-11.4622
写字	-11.4622
每一个人	-11.4623
加州	-11.4625
为企业	-11.4625
出路	-11.4626
财报	-11.4629
有时间	-11.4632
等方面的	-11.4634
逛街	-11.4635
学习和	-11.4635
共建	-11.4635
组件	-11.4635
表彰	-11.4636
要考虑	-11.4637
诀	-11.4638
射击	-11.4638
身处	-11.4638
又被	-11.4639
肢体	-11.4639
不尽	-11.464
那一	-11.4641
指向	-11.4642
少吃	-11.4643
的时光	-11.4645
合规	-11.4646
这让	-11.4648
山顶	-11.4651
红旗	-11.4653
的模式	-11.4654
大多是	-11.4656
手下	-11.4658
点缀	-11.4659
一向	-11.466
保暖	-11.466
跨境	-11.4664
其中一个	-11.4664
剧院	-11.4664
全面的	-11.4664
面条	-11.4665
我爱	-11.4666
给了我	-11.4669
慈悲	-11.4671
家长们	-11.4672
最大化	-11.4672
的确是	-11.4673
可以将	-11.4674
省钱	-11.4675
壬	-11.4676
科室	-11.4677
祖先	-11.4677
高尚	-11.4678
存量	-11.4679
都应该	-11.4679
中国人民	-11.4679
懒得	-11.468
副本	-11.4681
星球	-11.4681
您好	-11.4682
就可	-11.4683
羞	-11.4683
特有的	-11.4684
听取	-11.4685
制的	-11.4686
本公司	-11.4686
月饼	-11.4686
候选人	-11.4689
使我	-11.469
考古	-11.4692
挂在	-11.4695
硕士学位	-11.4695
穿搭	-11.4695
履	-11.4696
激烈的	-11.4697
方程	-11.4697
况且	-11.4698
多岁	-11.4699
风格的	-11.4699
月中旬	-11.4702
艺术品	-11.4705
们都	-11.4706
我们还	-11.4707
组长	-11.4708
肖战	-11.4708
楼主	-11.4709
傍晚	-11.471
陪你	-11.4711
站起来	-11.4712
1994	-11.4712
什么都不	-11.4712
心灵的	-11.4712
的那一	-11.4714
建立起	-11.4717
一起来	-11.4718
蒸汽	-11.4719
老妈	-11.4719
的巨大	-11.4721
派出	-11.4721
实业	-11.4722
-4	-11.4723
160	-11.4725
西红柿	-11.4727
ti	-11.4728
聆听	-11.4729
恋情	-11.473
的色彩	-11.4732
悲观	-11.4733
名声	-11.4733
起源	-11.4733
这部电影	-11.4733
梓	-11.4734
光电	-11.4735
中秋	-11.4735
的有效	-11.4736
人民检察院	-11.4736
受众	-11.474
柔和	-11.474
而来的	-11.474
广播电视	-11.474
原件	-11.4741
合作社	-11.4741
引流	-11.4742
海滩	-11.4743
颇有	-11.4744
可分为	-11.4744
的收益	-11.4745
ab	-11.4745
今天就	-11.4746
鳞	-11.4748
专心	-11.4748
特长	-11.4752
选取	-11.4752
不认识	-11.4752
孙子	-11.4757
喘	-11.4758
外在	-11.4759
克制	-11.4759
▁A	-11.476
华南	-11.476
江山	-11.4762
总共	-11.4764
两三	-11.4764
很正常	-11.4764
喀	-11.4767
各省	-11.4768
的模样	-11.4768
西湖	-11.4769
调剂	-11.4769
os	-11.4769
顺畅	-11.4771
位居	-11.4771
以外的	-11.4772
之间的关系	-11.4772
印发	-11.4772
在这种	-11.4775
啃	-11.4776
准确的	-11.4776
主意	-11.4778
等多个	-11.4782
陌	-11.4783
教育教学	-11.4784
会更加	-11.4785
听课	-11.4785
这辈子	-11.4785
花样	-11.4785
CEO	-11.4785
误会	-11.4785
陆军	-11.4785
农药	-11.4786
置于	-11.4786
农民工	-11.4789
满分	-11.479
便可	-11.479
净土	-11.4791
带孩子	-11.4793
滋	-11.4793
我校	-11.4794
三位	-11.4795
唱片	-11.4795
极具	-11.4795
un	-11.4796
成都市	-11.4797
影响到	-11.4798
五一	-11.4799
的唯一	-11.4799
互联	-11.4799
红枣	-11.48
我们知道	-11.48
so	-11.4802
哭泣	-11.4803
老了	-11.4804
这么大	-11.4805
身子	-11.4806
最近的	-11.4807
91	-11.4808
养老金	-11.4808
IC	-11.4808
主要内容	-11.4811
那一天	-11.4812
伦理	-11.4812
只知道	-11.4813
被子	-11.4813
的逻辑	-11.4813
企业文化	-11.4813
浏览器	-11.4814
知道你	-11.4814
天后	-11.4816
对未来	-11.4818
调度	-11.4818
会选择	-11.4819
屋顶	-11.482
暴雨	-11.4822
肤色	-11.4822
多半	-11.4824
蹦	-11.4826
不顺	-11.4826
不等	-11.4826
就在于	-11.4828
学习方法	-11.4828
听话	-11.4828
在接受	-11.4829
中年	-11.483
贵州省	-11.4831
同时也是	-11.4833
奇妙	-11.4834
充分的	-11.4836
瓷砖	-11.4836
承接	-11.4837
治好	-11.4839
房租	-11.4839
放过	-11.4839
上司	-11.4839
▁第五	-11.484
培训机构	-11.4841
保修	-11.4841
平和	-11.4843
相思	-11.4845
心头	-11.4845
课外	-11.4846
ba	-11.4846
减少了	-11.485
因为有	-11.485
丫	-11.485
富豪	-11.4851
糯米	-11.4853
诚实	-11.4854
兼顾	-11.4857
商学院	-11.4858
五六	-11.4859
向我	-11.486
也为	-11.486
长途	-11.486
搜集	-11.4861
着重	-11.4862
寺庙	-11.4863
反感	-11.4863
号召	-11.4865
万余	-11.4865
的物质	-11.4865
达人	-11.4865
技术人员	-11.4865
预备	-11.4866
ir	-11.4866
契机	-11.4866
颈部	-11.4868
好像是	-11.4869
对策	-11.487
轮廓	-11.487
也是有	-11.4871
批量	-11.4871
严禁	-11.4873
一字	-11.4874
手中的	-11.4875
我身边	-11.4875
经贸	-11.4875
▁C	-11.4875
彬	-11.4877
达不到	-11.4877
储蓄	-11.4878
单品	-11.4879
打磨	-11.4881
方向盘	-11.4881
赌博	-11.4882
增幅	-11.4884
通俗	-11.4885
梢	-11.4885
狐狸	-11.4886
这几	-11.4886
紫外线	-11.4887
帧	-11.4887
1993	-11.4889
还挺	-11.489
相见	-11.489
生产企业	-11.4892
­	-11.4893
写得	-11.4893
一大批	-11.4894
振动	-11.4894
潇洒	-11.4894
展望	-11.4895
宋代	-11.4896
对公司	-11.4897
恰	-11.4897
赞同	-11.4899
宝贵的	-11.49
研究人员	-11.4901
生机	-11.4901
打压	-11.4901
被打	-11.4902
强力	-11.4903
纠缠	-11.4903
一举	-11.4905
说的话	-11.4905
咪	-11.4906
流转	-11.4907
的温度	-11.4907
看清	-11.4908
出入	-11.4908
摄影师	-11.491
的事物	-11.4911
妞	-11.4912
清淡	-11.4912
痛苦的	-11.4913
关税	-11.4914
皂	-11.4915
品位	-11.4915
分歧	-11.4915
家企业	-11.4916
支队	-11.4917
县委	-11.4918
也知道	-11.4919
骄	-11.4919
靠谱	-11.492
若有	-11.4921
应用于	-11.4922
一律	-11.4923
受害者	-11.4923
想象力	-11.4923
沉重	-11.4923
票据	-11.4923
go	-11.4925
勇于	-11.4926
物理学	-11.4926
春晚	-11.4926
那儿	-11.4929
夺冠	-11.493
社会保障	-11.4931
昂贵	-11.4931
蒸发	-11.4932
生产经营	-11.4934
断了	-11.4935
的员工	-11.4935
冲洗	-11.4936
鄂	-11.4937
不是因为	-11.4937
内衣	-11.4938
助攻	-11.4939
产值	-11.4942
▁根据	-11.4945
媛	-11.4945
大便	-11.4945
冲刺	-11.4945
尽头	-11.4946
力求	-11.4947
130	-11.4947
马桶	-11.4947
的平台	-11.4948
做工	-11.4948
实在太	-11.495
忧伤	-11.4951
回合	-11.4951
饥	-11.4952
ot	-11.4955
但他们	-11.4955
接触到	-11.4957
至上	-11.4959
大了	-11.4961
很大程度上	-11.4963
正因为	-11.4965
岛上	-11.4965
的喜爱	-11.4968
校友	-11.4968
诱发	-11.4971
舔	-11.4971
嗨	-11.4971
的信任	-11.4975
悬挂	-11.4976
的电话	-11.4977
解放军	-11.4978
模范	-11.4978
捂	-11.4979
卑	-11.4979
贬	-11.4981
涨价	-11.4982
买车	-11.4984
厚重	-11.4984
双眼皮	-11.4985
筛	-11.4985
小腿	-11.4987
祁	-11.4987
分级	-11.4987
一听	-11.4989
苦恼	-11.499
唤醒	-11.4991
的主	-11.4992
旅程	-11.4993
势头	-11.4996
认识了	-11.4996
阿根廷	-11.4997
自考	-11.4997
静脉曲张	-11.4998
因为这	-11.4998
议论	-11.4999
减弱	-11.4999
非凡	-11.4999
都喜欢	-11.5001
热心	-11.5001
▁第七	-11.5001
就看	-11.5004
面貌	-11.5004
大家一起	-11.5004
沁	-11.5005
开采	-11.5005
香水	-11.5006
do	-11.5006
高质量发展	-11.5008
瘾	-11.501
新鲜的	-11.5011
少儿	-11.5011
党组织	-11.5012
公关	-11.5015
腹泻	-11.5017
老师们	-11.5019
总能	-11.5021
烛	-11.5022
并发症	-11.5024
草莓	-11.5024
毫无疑问	-11.5024
期盼	-11.5028
这个过程	-11.5029
后卫	-11.503
等一系列	-11.5032
MA	-11.5032
生活中的	-11.5032
这只是	-11.5033
说一句	-11.5033
榜单	-11.5034
之称	-11.5034
务实	-11.5035
只在	-11.5036
有一位	-11.5037
财运	-11.5037
脚步	-11.5038
班长	-11.5038
开会	-11.5039
麟	-11.5039
学霸	-11.5039
消失了	-11.5039
分会	-11.504
怪物	-11.5041
做生意	-11.5041
背着	-11.5041
展示了	-11.5042
腌	-11.5043
种族	-11.5044
ie	-11.5046
殊	-11.5047
洗干净	-11.5049
我之前	-11.505
努	-11.5051
而这些	-11.5051
总投资	-11.5051
会遇到	-11.5054
周四	-11.5055
所以你	-11.5056
总决赛	-11.5057
往年	-11.5058
民政	-11.5058
观望	-11.506
氯	-11.506
包包	-11.5061
增量	-11.5062
洋葱	-11.5063
▁6	-11.5064
樱桃	-11.5068
为主要	-11.507
绘制	-11.5072
拧	-11.5074
想让	-11.5074
什么事情	-11.5074
对我来说	-11.5076
调侃	-11.5077
窍	-11.5077
较强的	-11.5077
仍旧	-11.5082
步伐	-11.5085
背面	-11.5085
知名的	-11.5086
病因	-11.5086
贩	-11.5086
奠定了	-11.5087
参与者	-11.5088
▁c	-11.5089
泣	-11.509
在自己的	-11.509
怼	-11.5091
终生	-11.5092
党组成员	-11.5092
清澈	-11.5092
一幕	-11.5094
陕	-11.5094
不留	-11.5094
一个好的	-11.5094
同胞	-11.5095
小伙子	-11.5096
也都是	-11.5096
都比较	-11.5097
这么好	-11.5097
杜绝	-11.5099
溃	-11.5099
寓意	-11.51
的青春	-11.5102
积极的	-11.5102
投降	-11.5102
短板	-11.5103
那个人	-11.5103
有价值的	-11.5103
中断	-11.5104
对身体	-11.5106
越来越大	-11.5108
那么大	-11.5109
天文	-11.5109
nba	-11.5109
腐蚀	-11.5109
剂量	-11.511
人员的	-11.5111
这都是	-11.5111
聪明的	-11.5111
三角形	-11.5111
的追求	-11.5111
洗脸	-11.5112
的两个	-11.5113
供水	-11.5113
都无法	-11.5114
米的	-11.5114
不同意	-11.5116
的提升	-11.5116
1990	-11.5116
听起来	-11.5118
成长的	-11.5119
庞大	-11.512
首位	-11.512
这种人	-11.5121
牢固	-11.5122
首页	-11.5124
的差距	-11.5126
佛山	-11.5126
也有很多	-11.5127
cc	-11.5128
的综合	-11.5128
重生	-11.5128
高质量	-11.5129
有网友	-11.5131
文人	-11.5132
研究会	-11.5132
电量	-11.5135
不解	-11.5136
电线	-11.5136
喜悦	-11.5138
所作	-11.5139
冷冻	-11.5139
真的好	-11.5141
人情	-11.5141
那么就	-11.5141
有关的	-11.5143
霖	-11.5143
运势	-11.5144
有足够的	-11.5145
省委	-11.5145
新华社	-11.5149
流出	-11.5149
目前已	-11.5149
几家	-11.515
两千	-11.515
这样说	-11.5151
幢	-11.5152
普通话	-11.5152
适时	-11.5153
不起来	-11.5153
共和国	-11.5154
共赢	-11.5155
沐浴	-11.5157
其所	-11.5157
鲸	-11.5161
课文	-11.5161
他人的	-11.5161
庆幸	-11.5163
我们看到	-11.5164
最容易	-11.5164
英寸	-11.5165
放学	-11.5166
威力	-11.5168
人设	-11.5169
芋	-11.5169
自然是	-11.517
彩票	-11.517
追踪	-11.517
青睐	-11.517
一大堆	-11.5172
责任感	-11.5172
贬值	-11.5173
除去	-11.5175
峰会	-11.5175
后天	-11.5175
呵	-11.5176
频频	-11.5177
觅	-11.5177
无论你	-11.5177
历任	-11.5178
漫长的	-11.5179
酯	-11.5179
疫	-11.518
锅炉	-11.518
随手	-11.518
不忘	-11.5182
传授	-11.5183
交替	-11.5183
骏	-11.5184
潮湿	-11.5185
凿	-11.5186
能达到	-11.5187
与众不同	-11.5188
不必要的	-11.5188
凭什么	-11.5189
的特征	-11.519
信访	-11.5191
责令	-11.5193
男士	-11.5195
能得到	-11.5195
爆料	-11.5195
掩盖	-11.5197
税率	-11.5198
同比下降	-11.5198
利于	-11.5199
口红	-11.52
不动产	-11.5201
可通过	-11.5203
自如	-11.5204
谛	-11.5204
先说	-11.5205
房源	-11.5207
增长率	-11.5208
换个	-11.521
隋	-11.5211
嘎	-11.5213
镁	-11.5213
就能够	-11.5214
桂林	-11.5214
的阳光	-11.5214
培训班	-11.5215
泉州	-11.5216
天鹅	-11.5217
领导干部	-11.5218
im	-11.5219
芙	-11.5222
编码	-11.5222
时间段	-11.5223
是你的	-11.5223
三条	-11.5224
7%,	-11.5228
支配	-11.5229
的季节	-11.5229
蘑菇	-11.5231
na	-11.5231
潜意识	-11.5235
黛	-11.5238
阎	-11.5238
曲折	-11.5239
是由于	-11.5239
也没什么	-11.5239
并且在	-11.524
最开始	-11.5241
网民	-11.5242
前列	-11.5242
轴承	-11.5243
长短	-11.5245
企图	-11.5245
真好	-11.5245
我问	-11.5247
省政府	-11.5247
可以使用	-11.525
排斥	-11.525
之气	-11.5251
该怎么办	-11.5251
山路	-11.5251
出版社出版	-11.5251
保管	-11.5251
雷锋	-11.5252
体现出	-11.5253
戒指	-11.5253
央	-11.5256
的缘故	-11.5257
阳县	-11.5258
延期	-11.5258
像素	-11.5261
悲哀	-11.5262
最简单的	-11.5263
的商业	-11.5264
原先	-11.5265
打开了	-11.5265
比亚迪	-11.5266
或者其他	-11.5267
甲方	-11.5267
悠悠	-11.5269
起初	-11.5271
高一	-11.5272
ni	-11.5272
帝王	-11.5272
檐	-11.5273
芦	-11.5274
的一个重要	-11.5276
可笑	-11.5278
势必	-11.5279
不理解	-11.528
饱和	-11.5284
就是个	-11.5284
书院	-11.5285
以防	-11.5286
窗帘	-11.5287
进食	-11.5289
空气中	-11.5289
跟进	-11.529
高频	-11.529
在整个	-11.5291
永远不会	-11.5291
军区	-11.5291
彤	-11.5292
以下的	-11.5293
失踪	-11.5298
的领导	-11.5298
方法是	-11.5299
会展	-11.53
迁移	-11.5301
计较	-11.5301
**	-11.5302
鸡肉	-11.5302
孩	-11.5303
宣告	-11.5304
网购	-11.5304
八十	-11.5305
这里有	-11.5305
矿山	-11.5306
政法	-11.5307
而被	-11.5307
市中心	-11.5307
多余的	-11.5309
矢	-11.5309
自来水	-11.5313
和别人	-11.5313
不是我	-11.5317
调试	-11.5318
有任何	-11.5318
柴油	-11.5319
豆瓣	-11.5321
趟	-11.5321
从业人员	-11.5322
明清	-11.5322
有余	-11.5323
厉	-11.5325
台北	-11.5325
的了解	-11.5326
奇怪的	-11.5327
评为	-11.5328
水稻	-11.5328
封面	-11.533
览	-11.533
心意	-11.533
遥远	-11.5332
破裂	-11.5333
热带	-11.5335
胳膊	-11.5336
严峻	-11.5337
动摇	-11.5338
墙壁	-11.5339
无常	-11.534
实际上是	-11.5342
信息系统	-11.5343
励志	-11.5346
是否会	-11.5348
第六十	-11.5352
又不是	-11.5358
规避	-11.5358
单车	-11.5359
瘦身	-11.536
奕	-11.5362
二手车	-11.5362
急救	-11.5363
变速箱	-11.5363
好几个	-11.5365
合力	-11.5368
专职	-11.5369
比较好的	-11.5369
参展	-11.537
所以他	-11.5371
第二种	-11.5371
统一的	-11.5371
忙着	-11.5373
之子	-11.5374
有不同的	-11.5375
人选	-11.5376
运算	-11.5377
的朋友们	-11.5377
南瓜	-11.5378
气的	-11.538
是无法	-11.538
恬	-11.538
冉	-11.5381
拉动	-11.5381
这片	-11.5384
懂事	-11.5384
入睡	-11.5384
但对于	-11.5385
榨	-11.5386
的缺点	-11.5388
甜美	-11.539
'	-11.5391
我们认为	-11.5391
后世	-11.5393
回想	-11.5395
躁	-11.5395
恶魔	-11.5396
火烧	-11.5396
万千	-11.5396
基本都是	-11.5397
cp	-11.5399
一般在	-11.5399
数控	-11.5404
给你们	-11.5405
塌	-11.5406
十月	-11.5406
的品质	-11.5406
圣人	-11.5406
这里是	-11.5406
的乐趣	-11.5406
也不敢	-11.5408
海口	-11.5408
说要	-11.5409
厌恶	-11.5409
作为一名	-11.5409
的男生	-11.541
深层	-11.541
钢筋	-11.541
140	-11.541
地道	-11.541
不公平	-11.5412
输了	-11.5415
传出	-11.5415
健康发展	-11.5416
他却	-11.5416
有很多人	-11.5417
重疾险	-11.5417
全景	-11.5417
医疗器械	-11.5418
饲养	-11.5418
未成年人	-11.5418
为一体的	-11.5418
不方便	-11.5419
音频	-11.5419
安定	-11.5419
逆转	-11.542
忽悠	-11.542
水平的	-11.5421
设想	-11.5424
是如此	-11.5425
平台的	-11.5426
很深	-11.5427
饰品	-11.5427
只是想	-11.5428
”)	-11.5428
博览会	-11.5431
还不够	-11.5433
一直没有	-11.5433
了好多	-11.5434
老是	-11.5435
无声	-11.5436
着自己	-11.5436
绿茶	-11.5436
纪委	-11.5436
界限	-11.5438
联手	-11.5438
铲	-11.5439
他家	-11.5439
媒体报道	-11.5441
投保	-11.5441
将自己	-11.5441
买单	-11.5442
氟	-11.5444
浪潮	-11.5444
外包	-11.5446
投产	-11.5446
时报	-11.5446
又开始	-11.5448
管家	-11.5449
行车	-11.5453
站立	-11.5454
市场中	-11.5454
总的来说	-11.5455
分局	-11.5455
头皮	-11.5456
已经很	-11.5457
说她	-11.5459
黑色的	-11.5459
拉斯	-11.546
卖点	-11.5461
报表	-11.5464
廉价	-11.5465
知道我	-11.5465
贝尔	-11.5466
进出	-11.5468
1200	-11.5468
武功	-11.5468
裴	-11.547
理赔	-11.547
委会	-11.5471
讲了	-11.5473
认识的	-11.5474
秋冬	-11.5476
尽早	-11.5477
的限制	-11.5478
厄	-11.5479
破解	-11.5479
孵化	-11.548
。2015	-11.5482
金融服务	-11.5482
-12	-11.5483
给您	-11.5483
光学	-11.5485
吏	-11.5486
上千	-11.5486
女主角	-11.5486
徐州	-11.5487
你没有	-11.5488
杨幂	-11.5489
公积金	-11.5489
图片发自	-11.549
色的	-11.5492
所需要的	-11.5492
三分之一	-11.5493
朝着	-11.5493
无不	-11.5495
分管	-11.5495
这种方法	-11.5496
买个	-11.5497
九月	-11.5497
王者荣耀	-11.5497
东海	-11.5497
加了	-11.5497
广阔	-11.5498
序列	-11.5498
名誉	-11.5499
基准	-11.5499
一秒	-11.55
190	-11.5501
头条	-11.5501
大妈	-11.5502
河道	-11.5502
矿物质	-11.5505
郝	-11.5505
其次是	-11.5507
切除	-11.5507
那年	-11.5508
克拉	-11.551
有人在	-11.551
旗下的	-11.5511
股指	-11.5512
帮他	-11.5512
赛道	-11.5515
客车	-11.5515
贵阳	-11.5516
的影子	-11.5518
真人	-11.5518
学好	-11.5519
警示	-11.552
复工	-11.552
荐	-11.5521
在这样的	-11.5523
降低了	-11.5523
找回	-11.5525
的一项	-11.5527
段子	-11.5527
任命	-11.5528
预定	-11.5528
也越来越	-11.5529
宽带	-11.5531
斧	-11.5533
的小说	-11.5534
周转	-11.5535
陪我	-11.5538
马克思主义	-11.5539
物种	-11.5539
外人	-11.5539
生孩子	-11.554
出处	-11.5543
vi	-11.5544
精髓	-11.5544
代言	-11.5545
商品房	-11.5546
查阅	-11.5546
红色的	-11.5546
上百	-11.5547
拿到了	-11.5547
暖气	-11.5547
抵制	-11.5548
再现	-11.5549
我只能	-11.5549
奴隶	-11.5551
▁当	-11.5552
其中包括	-11.5553
有这么	-11.5555
唤	-11.5557
凡事	-11.5558
火山	-11.5559
笔画	-11.5559
拍了	-11.5563
预言	-11.5564
-5	-11.5565
泄露	-11.5565
制作的	-11.5565
值班	-11.5566
?”“	-11.5566
门窗	-11.5566
本金	-11.5566
顺应	-11.5567
下面是	-11.5568
教研	-11.5568
的贡献	-11.557
半月	-11.557
排在	-11.5571
IPO	-11.5572
的结局	-11.5572
二字	-11.5572
头像	-11.5572
行星	-11.5574
轨道交通	-11.5575
造假	-11.5576
排序	-11.5577
朔	-11.5577
一分钟	-11.5577
可观	-11.5577
的婚姻	-11.5578
我这	-11.5578
摧毁	-11.558
一篇文章	-11.5581
ex	-11.5581
房地产市场	-11.5583
全文	-11.5584
自然的	-11.5586
季后赛	-11.5587
香菇	-11.559
父亲的	-11.559
的头发	-11.5591
▁7	-11.5591
国会	-11.5592
在这一	-11.5592
弊	-11.5593
当晚	-11.5594
脱贫攻坚	-11.5595
的妈妈	-11.5596
掐	-11.5596
好玩	-11.5596
实地	-11.5596
旗舰	-11.5596
买进	-11.5599
调动	-11.5599
溶液	-11.56
请教	-11.56
今天是	-11.56
湖人	-11.5602
注销	-11.5602
不就是	-11.5603
腿部	-11.5603
先进单位	-11.5604
比重	-11.5604
碎片	-11.5605
霉	-11.5606
樱花	-11.5606
」。	-11.5606
瞩目	-11.5607
主治	-11.5608
特定的	-11.5608
手掌	-11.5612
传闻	-11.5613
对他的	-11.5613
垢	-11.5614
并于	-11.5615
乘车	-11.5615
惬意	-11.5615
名片	-11.5617
▁10	-11.5618
后人	-11.5618
可使	-11.5618
建议大家	-11.5621
升值	-11.5622
真情	-11.5625
四方	-11.5625
快要	-11.5625
才开始	-11.563
副院长	-11.563
一个男人	-11.5631
在当时	-11.5632
一站式	-11.5633
拖延	-11.5636
合格的	-11.5637
就够了	-11.5638
辑	-11.5639
搬家	-11.5639
的美丽	-11.5641
最喜欢的	-11.5641
嘿嘿	-11.5642
辩护	-11.5643
行业发展	-11.5644
溢价	-11.5645
找我	-11.5645
正经	-11.5646
海底	-11.5646
粪	-11.5647
胃肠	-11.5648
举行的	-11.5648
大树	-11.5649
父子	-11.5649
琢磨	-11.5651
中国大陆	-11.5652
代理人	-11.5653
一个星期	-11.5654
的气质	-11.5654
很累	-11.5658
边境	-11.5658
也不想	-11.566
心境	-11.5661
这里面	-11.5661
麻木	-11.5661
扭曲	-11.5663
党建	-11.5664
领悟	-11.5665
一点也不	-11.5665
迟到	-11.5665
一个好	-11.5666
百家	-11.567
相关负责人	-11.567
前十	-11.5671
应有的	-11.5671
电站	-11.5672
有用的	-11.5674
认购	-11.5678
习近平	-11.5679
光彩	-11.568
后又	-11.568
演艺	-11.5681
公立	-11.5681
数千	-11.5681
配音	-11.5682
申购	-11.5682
好运	-11.5682
手续费	-11.5683
五官	-11.5683
打死	-11.5684
喝茶	-11.5684
我用	-11.5685
现代人	-11.5685
降临	-11.5687
吉林省	-11.5689
增进	-11.5689
沐	-11.5691
自治	-11.5691
特点是	-11.5693
聘请	-11.5697
敬业	-11.5698
标志着	-11.5698
新股	-11.5698
ha	-11.5699
心跳	-11.57
在场	-11.57
的回忆	-11.5701
边上	-11.5701
篇文章	-11.5703
瑜	-11.5703
绿豆	-11.5706
老太太	-11.5706
变迁	-11.5709
改成	-11.571
基督教基督教基督教亿亿亿亿亿亿亿	-11.571
响起	-11.571
多方面	-11.5711
女的	-11.5712
胖子	-11.5714
药店	-11.5714
嚼	-11.5715
锯	-11.5715
送上	-11.5715
几乎所有	-11.5715
这是个	-11.5716
书本	-11.5718
条规定	-11.5719
开发的	-11.5719
211	-11.5722
领导者	-11.5723
究竟是	-11.5723
多样化	-11.5724
开来	-11.5727
问道	-11.5728
异议	-11.5729
成名	-11.573
总面积	-11.5731
后市	-11.5732
也一样	-11.5733
期内	-11.5733
枯燥	-11.5735
创下	-11.5735
征信	-11.5736
甘肃省	-11.5737
大三	-11.5737
制裁	-11.5738
起身	-11.5739
洪水	-11.5739
黑人	-11.5739
复读	-11.5739
建有	-11.574
改变自己	-11.574
等因素	-11.574
女人的	-11.5742
拍的	-11.5742
苟	-11.5742
出土	-11.5743
基数	-11.5743
几张	-11.5743
大家好	-11.5744
服务平台	-11.5746
你是不是	-11.5746
十多年	-11.575
接连	-11.5751
粉色	-11.5752
实训	-11.5752
-7	-11.5753
意思是	-11.5753
丽江	-11.5753
执政	-11.5753
产业园	-11.5754
必须是	-11.5754
gt	-11.5755
白领	-11.5755
个人信息	-11.5755
最好不要	-11.5756
问你	-11.5759
有帮助	-11.576
声称	-11.576
列出	-11.5761
自己的生活	-11.5763
劣势	-11.5763
金融市场	-11.5766
首付	-11.5767
传动	-11.5767
的造型	-11.5768
入场	-11.5769
核准	-11.5769
拙	-11.577
第二届	-11.5771
阿弥陀佛	-11.5771
中标	-11.5772
流感	-11.5773
时装	-11.5773
所有权	-11.5774
初恋	-11.5777
淋浴	-11.5778
讽刺	-11.5778
米兰	-11.5778
大体	-11.5778
砌	-11.5779
解题	-11.5779
钧	-11.578
祈祷	-11.578
商用	-11.578
学子	-11.578
读完	-11.5781
一键	-11.5781
常务	-11.5782
:0	-11.5783
会议上	-11.5783
发泄	-11.5783
被认为是	-11.5784
顽	-11.5785
神秘的	-11.5785
是怎样的	-11.5785
祝你	-11.5788
趴	-11.5788
的改变	-11.5788
人体的	-11.5788
他们也	-11.579
的差异	-11.579
下巴	-11.579
后排	-11.5791
饼干	-11.5792
太久	-11.5792
沿线	-11.5792
相对较	-11.5793
评定	-11.5794
进军	-11.5795
劳务	-11.5798
出汗	-11.5799
也正是	-11.5799
睫毛	-11.5799
要及时	-11.58
想到了	-11.58
要好	-11.5801
拟订	-11.5802
日在	-11.5802
日电	-11.5803
元左右	-11.5806
并与	-11.5806
可根据	-11.5807
桔	-11.5807
爻	-11.5808
嗜	-11.5808
后就	-11.5809
杯子	-11.5809
政策的	-11.5809
评委	-11.581
率领	-11.5811
母亲的	-11.5813
说明了	-11.5814
迹象	-11.5818
的时间里	-11.5819
分数线	-11.5824
讨好	-11.5825
板上	-11.5825
举个例子	-11.5827
更喜欢	-11.5827
副教授	-11.5828
脱贫	-11.583
供需	-11.583
世界上最	-11.5831
要做到	-11.5831
前面的	-11.5833
想来	-11.5833
啸	-11.5833
呐	-11.5833
这对于	-11.5834
就直接	-11.5834
炫耀	-11.5836
照样	-11.5836
短暂的	-11.5836
的训练	-11.5837
善意	-11.5838
电商平台	-11.584
藏在	-11.5841
掠	-11.5844
瘀	-11.5844
巨额	-11.5845
金融危机	-11.5845
眸	-11.5849
到一个	-11.585
时间去	-11.5851
手脚	-11.5852
生殖	-11.5853
不合适	-11.5857
作息	-11.5857
是用来	-11.5857
历史文化	-11.586
这个阶段	-11.5861
一趟	-11.5861
的处理	-11.5861
书房	-11.5861
这本	-11.5863
插座	-11.5863
主板	-11.5864
成就感	-11.5867
一团	-11.587
陇	-11.5872
首家	-11.5873
洗涤	-11.5874
现阶段	-11.5876
高大	-11.5876
的总	-11.5876
开店	-11.5877
第一种	-11.5877
到家	-11.5878
使之	-11.5879
死者	-11.5879
甫	-11.588
金山	-11.5882
在上面	-11.5883
不可避免	-11.5884
陈述	-11.5884
侵害	-11.5886
偏差	-11.5886
汇集	-11.5887
的礼物	-11.5887
修饰	-11.5887
淳	-11.5888
副总经理	-11.5888
没见过	-11.589
正是因为	-11.5891
的行业	-11.5892
友们	-11.5893
所做的	-11.5893
人称	-11.5893
续航	-11.5895
摆在	-11.59
虚弱	-11.59
耿	-11.5901
结石	-11.5903
燃油	-11.5903
之后就	-11.5904
启蒙	-11.5905
衍	-11.5906
一切都是	-11.5906
因为这个	-11.5909
可知	-11.5911
大雨	-11.5911
规范化	-11.5912
特别是在	-11.5912
的可能	-11.5912
最后一次	-11.5913
写道	-11.5915
无数次	-11.5917
沧桑	-11.592
原有的	-11.5922
的含义	-11.5925
的玩家	-11.5926
多年前	-11.5927
也是如此	-11.5928
的保护	-11.5929
涅	-11.5929
前世	-11.5929
App	-11.593
马拉松	-11.593
战友	-11.593
液晶	-11.5931
医科大学	-11.5931
有意义	-11.5932
分期	-11.5933
罗斯	-11.5934
明了	-11.5934
战国	-11.5935
要先	-11.5935
深厚	-11.5936
挪	-11.5936
首饰	-11.5937
吃亏	-11.5937
曦	-11.5937
被骗	-11.5938
很多事情	-11.594
照射	-11.594
打得	-11.594
迷失	-11.5942
凄	-11.5943
后方	-11.5944
并通过	-11.5945
结果是	-11.5945
转为	-11.5946
战绩	-11.5948
的消费	-11.5952
堕	-11.5954
的建筑	-11.5954
创伤	-11.5955
大力发展	-11.5956
录像	-11.5956
巍	-11.5957
的氛围	-11.5958
公布了	-11.5959
枢纽	-11.5961
更适合	-11.5961
旅行社	-11.5962
的计划	-11.5962
主权	-11.5964
蒋介石	-11.5966
缅甸	-11.5967
借钱	-11.5967
诸侯	-11.5968
滑雪	-11.597
四月	-11.597
大军	-11.5971
优惠政策	-11.5971
保罗	-11.5972
方位	-11.5973
机组	-11.5974
而过	-11.5975
意义的	-11.5975
播种	-11.5976
你要是	-11.5976
通往	-11.598
患病	-11.598
个子	-11.598
玛丽	-11.5982
平凡的	-11.5982
深远	-11.5983
得更	-11.5985
蝉	-11.5986
蘸	-11.5987
簿	-11.5987
连衣裙	-11.5987
对阵	-11.5987
就不是	-11.5987
好象	-11.5987
车企	-11.599
不小的	-11.599
借贷	-11.5991
两手	-11.5991
生产基地	-11.5991
在他们	-11.5992
聚合	-11.5993
竿	-11.5994
这个东西	-11.5994
中含有	-11.5995
剁	-11.5996
也不用	-11.5996
华盛顿	-11.5996
孙悟空	-11.5996
你已经	-11.5998
昔日	-11.5998
高效的	-11.5999
阻挡	-11.6002
也希望	-11.6005
平整	-11.6005
不具备	-11.6006
怎么可能	-11.6007
来说是	-11.6008
企业和	-11.6008
明日	-11.6008
航线	-11.6009
化为	-11.601
午后	-11.6012
最常见的	-11.6013
有三	-11.6014
时髦	-11.6016
贴近	-11.6017
挂钩	-11.6017
环绕	-11.6022
报刊	-11.6022
营业执照	-11.6025
初心	-11.6025
地段	-11.6027
的几个	-11.6027
旁边的	-11.6028
才会有	-11.6029
尊敬	-11.6029
风景区	-11.6033
这种方式	-11.6034
下周	-11.6036
尚书	-11.6038
不能说	-11.6039
惧	-11.6039
岩石	-11.6039
简易	-11.604
元的	-11.604
鉴别	-11.6041
聂	-11.6042
陀	-11.6043
网址	-11.6043
尺度	-11.6044
好奇心	-11.6044
壮大	-11.6044
导入	-11.6044
卡片	-11.6044
这条路	-11.6046
水源	-11.6046
八大	-11.6047
明珠	-11.6047
红薯	-11.6049
讲课	-11.6051
脓	-11.6052
还很	-11.6053
○	-11.6053
六月	-11.6056
挤压	-11.6057
的一天	-11.606
一出	-11.6061
乌克兰	-11.6062
开出	-11.6062
再加	-11.6063
雌	-11.6063
核查	-11.6065
主义者	-11.6065
氧气	-11.6067
战斗力	-11.6068
流动性	-11.6068
这个是	-11.6069
六大	-11.6069
走得	-11.6071
乐意	-11.6071
老师说	-11.6071
清香	-11.6073
完后	-11.6074
开机	-11.6077
恼	-11.6077
衰退	-11.6077
剧场	-11.6077
才行	-11.6077
术语	-11.6078
男人的	-11.6078
请不要	-11.6079
赢了	-11.6079
知晓	-11.6079
油画	-11.6081
暧昧	-11.6082
中学生	-11.6083
尔斯	-11.6084
一小时	-11.6085
癫痫	-11.6087
丰厚	-11.6087
读了	-11.6089
饵	-11.6089
再也没有	-11.609
大大的	-11.6091
↓	-11.6092
迪士尼	-11.6092
做空	-11.6093
替换	-11.6094
等症状	-11.6094
就让	-11.6094
所长	-11.6095
记忆力	-11.6096
能让你	-11.6097
却发现	-11.6097
是否能	-11.6098
娅	-11.61
也成为	-11.6101
年前的	-11.6103
追溯	-11.6104
熟知	-11.6104
格林	-11.6105
存在于	-11.6106
意境	-11.6106
无缝	-11.6107
保持着	-11.6108
一定要注意	-11.6109
传送	-11.611
忽略了	-11.611
额头	-11.6111
马克	-11.6111
结婚了	-11.6113
今天我们	-11.6113
瓶子	-11.6113
固定资产	-11.6114
漫长	-11.6115
礼拜	-11.6115
生物学	-11.6115
银行业	-11.6115
下来了	-11.6115
自然会	-11.6116
斯坦	-11.6116
互联网金融	-11.6118
告诉她	-11.6118
归属	-11.6118
周三	-11.6118
自然而然	-11.612
对立	-11.612
包含了	-11.6121
揭示	-11.6121
的细节	-11.6122
口头	-11.6123
另一半	-11.6123
不足以	-11.6124
现为	-11.6125
成年	-11.6126
本来就是	-11.6128
抑	-11.6128
略有	-11.6129
着眼	-11.6129
行列	-11.613
就会发现	-11.6131
汗水	-11.6136
希望自己	-11.6136
拥有了	-11.6137
倘若	-11.6139
图册	-11.614
具体情况	-11.6141
打卡	-11.6141
向外	-11.6142
这部剧	-11.6146
菇	-11.6146
车祸	-11.6149
认真的	-11.6151
制动	-11.6151
影院	-11.6151
掘	-11.6151
霸气	-11.6152
沉迷	-11.6153
安利	-11.6153
ve	-11.6154
▁第六	-11.6155
七月	-11.6155
峻	-11.6156
看点	-11.6156
对这个	-11.6156
万亩	-11.6157
很远	-11.6157
于是就	-11.6158
勉	-11.616
水肿	-11.6161
控股股东	-11.6164
拽	-11.6167
狭窄	-11.6168
换句话说	-11.6168
水上	-11.6168
八月	-11.6168
接种	-11.6168
hi	-11.6169
非常有	-11.6169
可以先	-11.6171
有条件	-11.6175
审议	-11.6175
家装	-11.6176
吃什么	-11.6177
就用	-11.6179
育儿	-11.6181
夺得	-11.6182
上台	-11.6182
易于	-11.6182
棵	-11.6183
通常是	-11.6185
卡尔	-11.6186
mp	-11.6186
氨基酸	-11.6187
昔	-11.6189
快手	-11.619
的象征	-11.6191
产妇	-11.6191
之分	-11.6193
红酒	-11.6194
心事	-11.6194
五千	-11.6194
窜	-11.6195
现实生活中	-11.6195
小便	-11.6197
不仅要	-11.6199
本期	-11.6201
1988	-11.6202
白马	-11.6204
配偶	-11.6205
剪辑	-11.6207
全局	-11.6207
的帮助	-11.6208
机能	-11.621
生生	-11.621
选股	-11.6211
好坏	-11.6211
制订	-11.6213
高新区	-11.6213
帮助你	-11.6213
夏日	-11.6213
与他	-11.6214
感触	-11.6215
乍	-11.6215
犯错	-11.6215
四级	-11.6216
无辜	-11.6216
教育的	-11.6216
会比较	-11.6216
成语	-11.6217
舌头	-11.6218
机型	-11.6219
TA	-11.622
这其中	-11.622
成立的	-11.6221
搞得	-11.6222
其实也	-11.6222
建设工程	-11.6222
拒绝了	-11.6222
有意思	-11.6224
共产党	-11.6224
原标题	-11.6225
矿业	-11.6225
表达了	-11.6225
先生的	-11.6225
电视机	-11.6226
关门	-11.6226
发给	-11.6227
美感	-11.6228
▁北京	-11.6229
寄托	-11.623
扭转	-11.623
就拿	-11.623
访谈	-11.6231
体内的	-11.6231
无助	-11.6231
复仇	-11.6231
交易者	-11.6233
眉毛	-11.6234
水量	-11.6236
盘面	-11.6237
传销	-11.6237
的事业	-11.6237
内分泌	-11.6238
也挺	-11.6238
的财富	-11.6239
预订	-11.6241
腌制	-11.6241
一则	-11.6241
琦	-11.6242
藏着	-11.6242
展现出	-11.6242
正规的	-11.6243
为她	-11.6244
坯	-11.6245
内有	-11.6245
推荐的	-11.6246
的那一刻	-11.6246
就一直	-11.6246
触摸	-11.6246
血脂	-11.6247
糊涂	-11.6248
代理商	-11.6249
海尔	-11.6249
旅馆	-11.625
时要	-11.625
梦里	-11.6251
机构的	-11.6253
第一章	-11.6254
的最新	-11.6254
国籍	-11.6256
同伴	-11.6256
投稿	-11.6256
是真	-11.6257
去皮	-11.6257
中国企业	-11.6258
从一个	-11.6259
追捧	-11.626
直达	-11.6261
这个地方	-11.6262
是目前	-11.6266
有的时候	-11.6266
火花	-11.6267
怀着	-11.6267
AC	-11.6269
见效	-11.6271
的天空	-11.6273
屏障	-11.6274
征集	-11.6274
做多	-11.6275
戴着	-11.6277
两张	-11.6278
腰部	-11.6281
疲	-11.6282
祭祀	-11.6283
提议	-11.6283
昕	-11.6283
啥的	-11.6283
工程建设	-11.6284
扮	-11.6285
烤箱	-11.6286
打包	-11.6287
我国的	-11.6288
玩笑	-11.629
发生变化	-11.629
发声	-11.6291
得益于	-11.6293
上报	-11.6294
的地步	-11.6295
嘴唇	-11.6296
磨损	-11.6296
报记者	-11.6296
万分	-11.6296
绘本	-11.63
病房	-11.63
振兴	-11.6301
她还	-11.6301
梭	-11.6302
大衣	-11.6302
学姐	-11.6303
芸	-11.6303
锅内	-11.6303
法律规定	-11.6303
pc	-11.6304
喜爱的	-11.6304
应注意	-11.6305
吸取	-11.6305
的种种	-11.6306
犯了	-11.6307
没有那么	-11.6308
风采	-11.6309
这件	-11.6311
点位	-11.6312
停下来	-11.6313
需求的	-11.6314
片子	-11.6314
出家	-11.6315
隐形	-11.6316
运动会	-11.6316
ry	-11.6317
常务理事	-11.6319
毅力	-11.6321
民宿	-11.6322
上路	-11.6324
能给	-11.6324
好在	-11.6325
罗汉	-11.6326
半个小时	-11.6326
第二节	-11.6327
然后我	-11.6327
资管	-11.6327
原著	-11.6327
博主	-11.6328
实务	-11.6328
科技进步	-11.6329
一个女人	-11.633
你得	-11.633
打破了	-11.633
无边	-11.6331
的危害	-11.6332
冻结	-11.6332
一二	-11.6336
扩建	-11.6338
厦	-11.6338
切片	-11.6338
阮	-11.6341
加水	-11.6341
相伴	-11.6342
虽然没有	-11.6343
想像	-11.6343
在一定程度上	-11.6346
异味	-11.6347
把这	-11.6347
中方	-11.6348
第一节	-11.6348
变的	-11.6348
位数	-11.6349
增添	-11.6351
在该	-11.6351
上市的	-11.6353
斐	-11.6353
看一看	-11.6353
iPhone	-11.6353
赚钱的	-11.6354
迭代	-11.6354
擅自	-11.6354
人造	-11.6354
魅	-11.6355
滋养	-11.6357
身边的人	-11.6359
精通	-11.636
狄	-11.6361
甚至有	-11.6362
拌匀	-11.6363
新浪财经	-11.6364
越来越少	-11.6365
人多	-11.6365
官兵	-11.6366
一侧	-11.6367
伤亡	-11.6368
。2014	-11.637
蠢	-11.6372
可口	-11.6372
是一场	-11.6372
;2	-11.6373
洁净	-11.6373
技术创新	-11.6376
眼前的	-11.6376
洗手	-11.6376
中路	-11.6377
出让	-11.6377
容纳	-11.6377
他没有	-11.6378
穿了	-11.6379
年毕业于	-11.6379
不一	-11.6382
和他的	-11.6383
自己的孩子	-11.6384
整洁	-11.6385
机的	-11.6385
地去	-11.6386
il	-11.6386
坦然	-11.6386
大二	-11.6386
房间里	-11.6387
一回	-11.6387
网店	-11.639
你家	-11.639
答复	-11.6391
职员	-11.6392
拓宽	-11.6394
人是	-11.6394
靠自己	-11.6396
评判	-11.6396
开启了	-11.6397
知己	-11.6397
是属于	-11.6397
做好了	-11.6398
自然资源	-11.6398
限定	-11.6398
民营	-11.6399
周二	-11.6399
直属	-11.6401
苏轼	-11.6401
好几	-11.6401
两面	-11.6402
开创	-11.6405
饭菜	-11.6406
已在	-11.6406
入职	-11.6407
纪录片	-11.6407
潜能	-11.6407
骤	-11.6408
精致的	-11.6409
入市	-11.641
趁着	-11.6411
si	-11.6411
搬迁	-11.6413
天子	-11.6414
辨别	-11.6415
点儿	-11.6416
置业	-11.6416
每年都	-11.6416
还会有	-11.6416
较快	-11.6418
成功率	-11.6419
多少人	-11.642
的良好	-11.642
而且在	-11.6421
经济效益	-11.6423
下面就	-11.6423
很棒	-11.6424
坏人	-11.6424
太小	-11.6424
di	-11.6427
有信心	-11.6429
刷牙	-11.6431
厨师	-11.6431
骨折	-11.6431
觉得你	-11.6431
针灸	-11.6433
跑去	-11.6433
鸽	-11.6433
农田	-11.6435
胶囊	-11.6437
学士	-11.6438
省内	-11.6439
地里	-11.6442
湿润	-11.6442
一年多	-11.6442
歌舞	-11.6444
不那么	-11.6446
华侨	-11.6446
震动	-11.6447
当局	-11.645
领土	-11.6451
平板	-11.6451
亚太	-11.6452
委副书记	-11.6453
做梦	-11.6456
公共服务	-11.6456
电动汽车	-11.6458
掌声	-11.6459
二期	-11.6459
助学	-11.6459
等各种	-11.6463
工业化	-11.6463
po	-11.6465
大牌	-11.6466
南宁	-11.6467
散热	-11.6467
火星	-11.6468
向他	-11.6468
再好	-11.6468
神器	-11.6469
发展方向	-11.6469
烦躁	-11.647
没有想到	-11.647
nd	-11.6471
他已经	-11.6472
着实	-11.6472
残忍	-11.6473
三家	-11.6474
研究成果	-11.6476
问候	-11.6478
了些	-11.6478
胶原蛋白	-11.6481
长期的	-11.6481
你也可以	-11.6481
福特	-11.6482
绝对的	-11.6482
起到了	-11.6482
的准备	-11.6483
很多东西	-11.6483
企业在	-11.6485
的空气	-11.6485
宝贵	-11.6487
的几率	-11.6489
家务	-11.6489
的日子里	-11.6489
削弱	-11.6489
完成的	-11.649
各家	-11.649
以致	-11.649
旷	-11.649
问答	-11.6491
招募	-11.6491
诚意	-11.6491
这样一来	-11.6492
市盈率	-11.6492
了解了	-11.6492
伸手	-11.6492
流域	-11.6493
眼看	-11.6493
比分	-11.6494
把钱	-11.6495
产地	-11.6495
两项	-11.6495
痛点	-11.6498
霄	-11.6499
应该有	-11.6501
也想	-11.6501
颁布	-11.6501
上手	-11.6502
摇滚	-11.6503
帅哥	-11.6504
制冷	-11.6505
一书	-11.6506
根据自己的	-11.6506
摸索	-11.6507
孜	-11.651
又名	-11.6512
在这些	-11.6514
更多人	-11.6514
LED	-11.6514
周六	-11.6515
风扇	-11.6516
阵营	-11.6516
妊娠	-11.652
服务商	-11.6521
可以使	-11.6522
转入	-11.6522
两个字	-11.6522
有毒	-11.6522
他把	-11.6523
水流	-11.6524
国有企业	-11.6524
提升了	-11.6525
是美国	-11.6525
我俩	-11.6525
交际	-11.6526
一直都是	-11.6526
沉积	-11.6527
简直就是	-11.6527
黄昏	-11.6528
初次	-11.6531
安全隐患	-11.6533
》:“	-11.6533
并以	-11.6533
我这个	-11.6533
树林	-11.6535
义务教育	-11.6535
圣经	-11.6535
一事	-11.6536
迭	-11.6538
的气息	-11.6539
投行	-11.6539
又说	-11.6539
慰	-11.6541
标杆	-11.6541
的境界	-11.6541
荣誉称号	-11.6542
绍兴	-11.6542
难怪	-11.6543
偏见	-11.6544
病症	-11.6544
秒钟	-11.6544
侧重	-11.6545
考证	-11.6545
魔鬼	-11.6546
我们都知道	-11.6546
的自由	-11.6546
躲在	-11.6547
杖	-11.6549
她会	-11.655
用的是	-11.6551
就只能	-11.6552
什么样	-11.6555
北宋	-11.6555
有情	-11.6556
角度来看	-11.6556
火力	-11.6556
道教	-11.6557
检修	-11.6557
亲手	-11.6558
牵引	-11.6559
威尔	-11.656
985	-11.656
很好地	-11.6561
润滑	-11.6563
的决心	-11.6563
万个	-11.6564
既能	-11.6564
网贷	-11.6564
杀菌	-11.6564
干涉	-11.6564
实用的	-11.6566
互助	-11.6566
攀升	-11.6567
谣言	-11.6569
黔	-11.657
企业发展	-11.657
死于	-11.6571
应聘	-11.6575
法门	-11.6577
为他们	-11.6577
应试	-11.6578
不要把	-11.6578
上诉	-11.6579
依旧是	-11.658
有的是	-11.6581
乖乖	-11.6582
免费的	-11.6582
证明了	-11.6585
背离	-11.6585
瞬	-11.6587
的判断	-11.6588
了几个	-11.6588
科技大学	-11.6589
拣	-11.659
光辉	-11.659
弥漫	-11.659
党中央	-11.6591
新三板	-11.6591
招牌	-11.6591
乙方	-11.6592
他要	-11.6592
相关规定	-11.6592
硕士研究生	-11.6594
一路上	-11.6595
按键	-11.6596
核心竞争力	-11.6596
电厂	-11.6597
集聚	-11.6598
喜欢他	-11.6598
我是一个	-11.6599
全过程	-11.6599
发财	-11.6601
小子	-11.6603
占了	-11.6603
患上	-11.6605
降至	-11.6606
演示	-11.6606
审视	-11.6606
的平均	-11.6606
反倒	-11.6608
景气	-11.6608
行业内	-11.6609
开心的	-11.661
手持	-11.661
村子	-11.6611
高水平	-11.6613
自己想	-11.6615
而我们	-11.6615
迷信	-11.6617
茄子	-11.6618
能用	-11.6618
了大量	-11.6619
赚了	-11.662
门户	-11.662
测定	-11.6622
不知道怎么	-11.6623
恭喜	-11.6623
但其	-11.6624
市场竞争	-11.6624
录用	-11.6625
中长期	-11.6625
电台	-11.6625
放出	-11.6626
说不出	-11.6626
所带来的	-11.6627
树上	-11.6627
享受到	-11.6627
医疗服务	-11.6627
订购	-11.6628
不仅能	-11.663
升起	-11.663
健身房	-11.6631
由此可见	-11.6631
之大	-11.6632
了这么多	-11.6634
谎言	-11.6634
的思考	-11.6635
盖上	-11.6635
盘整	-11.6635
对企业	-11.6635
基础设施建设	-11.6638
写过	-11.6639
在你的	-11.6639
比别人	-11.6639
截至目前	-11.664
赋能	-11.6641
汀	-11.6641
ec	-11.6642
口袋	-11.6642
早盘	-11.6642
我们自己	-11.6644
中式	-11.6645
不完	-11.6645
高出	-11.6647
率为	-11.6647
修身	-11.6649
逐年	-11.6649
采访时	-11.665
怀里	-11.665
招收	-11.6651
城镇化	-11.6652
看见了	-11.6654
片刻	-11.6655
宏观经济	-11.6656
星空	-11.6656
生命力	-11.6656
返还	-11.6658
的特色	-11.6658
强者	-11.6659
确切	-11.6659
淡定	-11.6659
阳线	-11.666
融化	-11.666
的代价	-11.666
人次	-11.6661
八个	-11.6662
独具	-11.6662
95%	-11.6663
山脉	-11.6664
过来的	-11.6665
免税	-11.6668
控制系统	-11.6668
早起	-11.6668
的姿态	-11.667
马尔	-11.667
为广大	-11.6673
就会被	-11.6673
尼斯	-11.6673
是什么呢	-11.6674
打好	-11.6674
打折	-11.6675
已然	-11.6675
经济学家	-11.6676
黑夜	-11.6676
安宁	-11.6676
员工的	-11.6677
体制改革	-11.6677
原型	-11.6679
察觉	-11.6682
千古	-11.6682
要让	-11.6683
上调	-11.6683
然后把	-11.6686
多重	-11.6687
坏事	-11.6688
督导	-11.6688
与发展	-11.6688
俏	-11.6688
不是为了	-11.669
氨	-11.669
医护人员	-11.6691
会用	-11.6691
改装	-11.6692
伴有	-11.6693
心愿	-11.6696
淡化	-11.6696
9%,	-11.6698
提炼	-11.6698
ow	-11.6698
再也不	-11.6699
庵	-11.67
OK	-11.6701
逍遥	-11.6701
草地	-11.6701
CA	-11.6702
不见了	-11.6702
机身	-11.6702
绑架	-11.6703
表决	-11.6703
上进	-11.6704
转眼	-11.6704
居士	-11.6706
对学生	-11.6708
完全不同	-11.6709
结晶	-11.6712
喇叭	-11.6712
打下	-11.6712
想吃	-11.6713
¥	-11.6713
反驳	-11.6713
相信自己	-11.6714
都是有	-11.6715
过错	-11.6718
是多少	-11.6719
机床	-11.6719
有限的	-11.6721
传染	-11.6721
陪同	-11.6722
牛仔裤	-11.6722
英镑	-11.6722
的危险	-11.6723
主要用于	-11.6724
前列腺	-11.6724
趋于	-11.6725
好好学习	-11.6725
脑子里	-11.6726
ee	-11.6726
私立	-11.6726
过关	-11.6729
就别	-11.6729
也很好	-11.6729
社会各界	-11.673
元气	-11.673
购置	-11.6731
跟风	-11.6731
欣慰	-11.6732
本案	-11.6735
女装	-11.6737
龚	-11.6742
芭	-11.6742
那只	-11.6744
大姐	-11.6747
里斯	-11.6748
个月内	-11.6749
顽强	-11.675
看到他	-11.675
科比	-11.675
眼角	-11.6752
遏制	-11.6753
3-5	-11.6754
睡不着	-11.6754
防腐	-11.6755
红外	-11.6755
推崇	-11.6756
野心	-11.6756
树叶	-11.6757
人生中	-11.6758
会发生	-11.6758
一个字	-11.6758
▁三	-11.676
疫情期间	-11.6761
爱他	-11.6762
年少	-11.6763
既要	-11.6764
转型升级	-11.6765
不变的	-11.6765
了一场	-11.6767
屋里	-11.6769
市场经济	-11.6769
牢牢	-11.677
非常大	-11.6772
塞尔	-11.6772
小心翼翼	-11.6772
坎坷	-11.6773
的信号	-11.6773
牌照	-11.6773
然后用	-11.6774
准备了	-11.6775
污染物	-11.6775
草案	-11.6777
真假	-11.6778
灾害	-11.6779
更低	-11.6781
专业人士	-11.6781
其一	-11.6782
愚蠢	-11.6783
而生	-11.6785
住房公积金	-11.6785
以上就是	-11.6786
师大	-11.6786
感人	-11.6786
采摘	-11.6789
其后	-11.6789
奇特	-11.6791
是那种	-11.6792
的前提	-11.6793
轧	-11.6793
畅销	-11.6793
相对来说	-11.6794
办事处	-11.6796
水管	-11.6796
奢华	-11.6797
眼霜	-11.6799
雇	-11.6799
预售	-11.6799
人大	-11.6801
灾区	-11.6802
因为没有	-11.6803
习近平总书记	-11.6803
这个社会	-11.6804
爱情的	-11.6804
▁这是	-11.6805
广阔的	-11.6806
愿景	-11.6806
契约	-11.6807
▁d	-11.6808
疹	-11.6809
味精	-11.6811
几万	-11.6811
考官	-11.6811
评论区	-11.6811
都不敢	-11.6813
指点	-11.6815
但是却	-11.6818
大局	-11.6818
就不用	-11.6824
两类	-11.6824
听得	-11.6825
每年的	-11.6825
孕育	-11.6826
其他国家	-11.6826
脸上的	-11.6826
3:	-11.6827
不听	-11.6827
才算	-11.6828
技法	-11.6828
眼界	-11.6829
问题上	-11.683
比较容易	-11.6832
爱自己	-11.6833
耸	-11.6833
越野	-11.6834
野生动物	-11.6834
麒麟	-11.6834
数目	-11.6836
毛衣	-11.6836
能力强	-11.6836
农作物	-11.6837
反省	-11.6838
开幕	-11.6838
竞价	-11.684
太难	-11.6841
ac	-11.6841
长征	-11.6842
紧凑	-11.6842
问她	-11.6842
炎热	-11.6843
th	-11.6843
不少于	-11.6844
藉	-11.6844
玺	-11.6845
而导致	-11.6845
他想	-11.6845
故宫	-11.6845
理论和	-11.6846
macd	-11.6846
说明书	-11.6846
奢	-11.6847
广电	-11.6848
鼓舞	-11.6848
-9	-11.685
的优秀	-11.6851
个多小时	-11.6853
舜	-11.6853
迦	-11.6855
憧憬	-11.6855
转到	-11.6856
实实在在	-11.6856
穿梭	-11.6856
▁8	-11.6857
学士学位	-11.6857
的行动	-11.6857
如图	-11.6858
的生存	-11.686
我以前	-11.6863
两款	-11.6864
到医院	-11.6865
〉	-11.6866
ml	-11.6866
真的有	-11.6866
新零售	-11.6868
的观念	-11.6868
自已	-11.6869
你都	-11.687
宝玉	-11.6871
次日	-11.6872
直接影响	-11.6873
止痛	-11.6874
在某	-11.6874
发觉	-11.6874
口气	-11.6875
有意思的	-11.6875
构图	-11.6875
抱歉	-11.6876
心智	-11.6877
第一部	-11.6877
熊猫	-11.6877
京城	-11.6877
生前	-11.6878
估	-11.6878
还有一种	-11.688
当地人	-11.6881
热水器	-11.6883
网络小说	-11.6883
嵩	-11.6885
越发	-11.6885
民航	-11.6886
研讨会	-11.6886
万能	-11.6887
固体	-11.6888
要做好	-11.6892
ter	-11.6894
好消息	-11.6896
珍贵的	-11.6896
雍	-11.6897
手套	-11.6897
店面	-11.6898
二百	-11.6898
可不是	-11.6899
温馨提示	-11.6899
系统中	-11.69
总要	-11.6901
芒果	-11.6901
构成了	-11.6902
心痛	-11.6902
网吧	-11.6902
1985	-11.6902
领导的	-11.6905
实在是太	-11.6905
莽	-11.6906
它可以	-11.6907
区政府	-11.6908
行政处罚	-11.691
那次	-11.6914
购房者	-11.6915
的一句话	-11.6915
我们所	-11.6915
局限	-11.6915
差异化	-11.6916
颐	-11.6917
茵	-11.6917
地毯	-11.6917
节假日	-11.6918
肉类	-11.6921
无限的	-11.6921
经验和	-11.6922
用作	-11.6923
对该	-11.6925
佣金	-11.6925
这样可以	-11.6925
人参	-11.6925
卖给	-11.6925
家里人	-11.6925
槐	-11.6925
做为	-11.6927
膀胱	-11.6928
伪装	-11.693
期末	-11.6931
介质	-11.6931
项羽	-11.6932
有事	-11.6932
私下	-11.6935
牵头	-11.6935
等候	-11.6936
开展了	-11.6937
探险	-11.6937
法兰	-11.6938
也同样	-11.6938
微量元素	-11.6938
面具	-11.6941
溶解	-11.6942
的定位	-11.6944
登山	-11.6945
越来越好	-11.6946
▁第一章	-11.6947
资源的	-11.6947
旬	-11.6947
注册资本	-11.6948
大纲	-11.6949
只是为了	-11.6951
使他	-11.6951
日元	-11.6954
收紧	-11.6954
无私	-11.6956
既不	-11.6956
黑色素	-11.6957
确定的	-11.6958
支架	-11.6958
墩	-11.6958
脱颖而出	-11.6959
我们已经	-11.6959
非常好的	-11.6963
现身	-11.6965
好一点	-11.6965
创造出	-11.6966
志愿服务	-11.6966
听说过	-11.6968
消炎	-11.6968
红尘	-11.6969
锚	-11.6969
礁	-11.6969
可乐	-11.6973
进入到	-11.6974
模样	-11.6974
甄	-11.6976
越来越高	-11.6976
显示器	-11.6979
扳	-11.698
还需	-11.698
冷藏	-11.698
浪费时间	-11.698
少不了	-11.6981
只能在	-11.6981
大山	-11.6981
等行业	-11.6982
很像	-11.6983
国立	-11.6983
单价	-11.6983
债权人	-11.6987
冰糖	-11.6987
医院的	-11.6987
成一个	-11.6988
在当地	-11.6988
生活费	-11.6989
我们家	-11.699
南宋	-11.6992
女性	-11.6994
抵抗力	-11.6995
袜	-11.6997
可能就是	-11.6997
填补	-11.6998
位列	-11.6998
雪花	-11.6999
悄然	-11.7
猿	-11.7
》:	-11.7
迷惑	-11.7001
鲜艳	-11.7002
班里	-11.7004
边际	-11.7005
杀害	-11.7005
跟上	-11.7005
追寻	-11.7007
ph	-11.7008
锥	-11.7009
绞	-11.701
油耗	-11.7011
◎	-11.7013
羊毛	-11.7013
座谈会	-11.7015
文凭	-11.7015
而无	-11.7015
新材料	-11.7018
炸弹	-11.7019
1991	-11.7019
煮熟	-11.7019
面目	-11.7023
委书记	-11.7024
转移到	-11.7026
▁第二章	-11.7026
缆	-11.7027
到手	-11.7028
北极	-11.7029
但是对于	-11.7029
年薪	-11.703
最快的	-11.7031
锂	-11.7032
建模	-11.7032
粒子	-11.7032
花瓣	-11.7032
and	-11.7033
间隙	-11.7038
容忍	-11.7039
一刀	-11.7039
未曾	-11.7039
制定了	-11.704
必须在	-11.704
进修	-11.7042
满足了	-11.7042
必然会	-11.7045
想一想	-11.7046
但现在	-11.7047
不求	-11.7049
晚了	-11.705
进门	-11.7051
而现在	-11.7051
知识和	-11.7051
告诉大家	-11.7051
不许	-11.7052
过着	-11.7053
实名	-11.7054
奢侈	-11.7054
本来是	-11.7054
诞	-11.7057
近两年	-11.7058
可控	-11.7058
受过	-11.706
喜欢的人	-11.706
雄厚	-11.7061
静态	-11.7061
海域	-11.7061
一年级	-11.7062
为期	-11.7062
推迟	-11.7062
你这	-11.7063
一届	-11.7064
正宗	-11.7066
箱子	-11.7066
跳槽	-11.7067
军团	-11.7067
牵挂	-11.7068
的新闻	-11.7074
妨碍	-11.7075
发扬	-11.7075
之于	-11.7076
植入	-11.7076
素质教育	-11.7078
绿地	-11.7078
会自动	-11.7082
体贴	-11.7082
的现状	-11.7083
从来没	-11.7083
为目标	-11.7083
古老	-11.7084
HR	-11.7084
清风	-11.7084
隐瞒	-11.7085
改名	-11.7086
也叫	-11.7087
吃药	-11.7088
量大	-11.7088
冰冷	-11.7089
完好	-11.7089
万家	-11.709
。2011	-11.7091
想把	-11.7094
口径	-11.7095
引发了	-11.7096
中国文化	-11.7097
一战	-11.71
病理	-11.7102
的痕迹	-11.7103
代表了	-11.7104
网站上	-11.7104
典范	-11.7104
商圈	-11.7104
烟台	-11.7105
不构成任何投资建议	-11.7106
em	-11.7106
雪山	-11.7107
美德	-11.7107
武汉市	-11.7108
有大	-11.7114
也罢	-11.7115
等相关	-11.7115
拥挤	-11.7117
理财产品	-11.7117
好久	-11.7117
司令	-11.7118
回味	-11.7118
低碳	-11.7119
视线	-11.7119
第一条	-11.7119
灭火	-11.712
从业	-11.7123
妾	-11.7125
以为自己	-11.7126
gdp	-11.7128
有所不同	-11.7129
何种	-11.7129
迫切	-11.7129
每每	-11.713
的培养	-11.7131
纯洁	-11.7131
理学	-11.7132
爱上了	-11.7132
所以就	-11.7133
OS	-11.7134
绑定	-11.7134
搬运	-11.7138
如果真的	-11.7139
自己的想法	-11.7139
倾诉	-11.7139
地球上	-11.714
龙头企业	-11.7141
风气	-11.7141
它会	-11.7143
情人节	-11.7143
瓷器	-11.7144
一分钱	-11.7145
庐	-11.7145
编织	-11.7146
是不一样的	-11.7147
高二	-11.7147
但实际上	-11.7149
可靠的	-11.7149
浮躁	-11.7149
残疾	-11.715
自然就	-11.715
忠实	-11.7151
开发者	-11.7151
紧接着	-11.7156
奔波	-11.7156
一群人	-11.7157
实木	-11.7158
处方	-11.716
陌生的	-11.7161
。2008	-11.7162
一棵	-11.7163
强国	-11.7164
了大量的	-11.7164
背上	-11.7165
少见	-11.7165
的老人	-11.7165
就是这么	-11.7166
拉伸	-11.7169
炳	-11.7169
流氓	-11.7169
小店	-11.717
以人为本	-11.717
大理	-11.7171
剖析	-11.7172
料理	-11.7173
如实	-11.7173
化石	-11.7173
袜子	-11.7174
关羽	-11.7175
哪有	-11.7176
潜水	-11.7176
岁了	-11.7177
个国家	-11.7178
瞄准	-11.718
盛世	-11.7181
律师事务所	-11.7181
华尔街	-11.7181
项目管理	-11.7182
不知道自己	-11.7182
长发	-11.7182
的各项	-11.7184
死刑	-11.7184
给力	-11.7185
工业大学	-11.7186
焰	-11.7186
爱护	-11.7186
图纸	-11.7186
商铺	-11.7186
翻了	-11.7187
所见	-11.7188
即为	-11.7189
只用	-11.7189
钞	-11.719
掷	-11.719
超高	-11.719
很漂亮	-11.7191
出头	-11.7192
站着	-11.7193
批次	-11.7194
情境	-11.7194
明智	-11.7194
黑龙江省	-11.7195
宛	-11.7195
重要作用	-11.7195
顶端	-11.7196
所学	-11.7196
觉得他	-11.7198
课堂教学	-11.7198
措	-11.7198
设在	-11.7198
大象	-11.7199
穿的	-11.72
容易被	-11.72
不要让	-11.7201
悬崖	-11.7201
侵略	-11.7201
有多少人	-11.7202
打球	-11.7202
盏	-11.7202
要靠	-11.7202
漫步	-11.7204
五金	-11.7205
养老保险	-11.7205
的阶段	-11.7206
来形容	-11.7208
本田	-11.7208
都有一个	-11.7208
的原理	-11.721
出去玩	-11.7211
祝愿	-11.7211
睡了	-11.7211
松弛	-11.7213
加密	-11.7213
难得的	-11.7213
一个地方	-11.7214
晋级	-11.7216
的现实	-11.7216
谁也	-11.7216
要保持	-11.7217
市场营销	-11.7222
个月的	-11.7222
ce	-11.7224
低估	-11.7226
▁T	-11.7226
卖了	-11.7226
日渐	-11.7227
内科	-11.7228
肉体	-11.7228
实体店	-11.7229
低端	-11.7229
自尊	-11.723
着她	-11.7233
的预期	-11.7234
全线	-11.7235
网络上	-11.7235
小男孩	-11.7236
意味	-11.7236
发展到	-11.7236
名言	-11.7239
树脂	-11.7241
薪水	-11.7242
邪恶	-11.7244
不要去	-11.7244
乏力	-11.7246
文体	-11.7246
都得	-11.7247
祛痘	-11.7247
骑行	-11.7248
下肢	-11.7248
7000	-11.7249
在这种情况下	-11.7249
CI	-11.7251
是人类	-11.7251
学佛	-11.7251
分支	-11.7252
事发	-11.7252
基金经理	-11.7253
三十年	-11.7254
嘻嘻	-11.7255
落叶	-11.7255
有更多的	-11.7256
会比	-11.7257
常有	-11.726
公证	-11.726
徒弟	-11.726
构筑	-11.7261
的歌曲	-11.7261
以此为	-11.7261
化疗	-11.7262
衔	-11.7265
有所帮助	-11.7265
将以	-11.7266
琅	-11.7266
是一个很	-11.7268
我不能	-11.7268
燕子	-11.7268
经营管理	-11.7269
ap	-11.7269
岁的时候	-11.7269
检索	-11.727
出现问题	-11.7272
驾车	-11.7272
独有的	-11.7273
。2013	-11.7273
功能的	-11.7275
家庭教育	-11.7275
往生	-11.7275
推测	-11.7276
赣	-11.7276
麦克	-11.7277
群岛	-11.7279
管理体系	-11.728
比较少	-11.7281
回首	-11.7282
时长	-11.7282
乙肝	-11.7283
小狗	-11.7285
棱	-11.7286
风俗	-11.7287
样品	-11.7287
湿地	-11.7287
职权	-11.7287
显示屏	-11.7289
车展	-11.7289
玩手机	-11.729
唐山	-11.729
始于	-11.7293
孝顺	-11.7293
出锅	-11.7295
不错的选择	-11.7295
与管理	-11.7297
麓	-11.7297
我怎么	-11.7298
七个	-11.7298
转账	-11.7298
之势	-11.7298
矩阵	-11.7299
▁更多图册	-11.73
往前	-11.73
的伟大	-11.7302
第二步	-11.7303
那么好	-11.7303
的业绩	-11.7304
也已经	-11.7305
知道他	-11.7306
奥巴马	-11.7308
月球	-11.731
断裂	-11.7311
每个人都有	-11.7311
言行	-11.7312
示范区	-11.7314
附录	-11.7314
天王	-11.7314
把孩子	-11.7314
节课	-11.7314
考前	-11.7314
想起了	-11.7315
他就是	-11.7315
不限	-11.7316
增高	-11.7317
不仅如此	-11.7318
焕	-11.7318
监视	-11.7318
甚至连	-11.7318
旅游业	-11.7318
造价	-11.7319
只看	-11.7319
溃疡	-11.7319
的名义	-11.732
丰富多彩	-11.7321
这两天	-11.7321
了一条	-11.7321
部部长	-11.7322
用什么	-11.7325
职业教育	-11.7325
切记	-11.7327
救治	-11.7327
王某	-11.7328
咽喉	-11.733
晏	-11.733
毯	-11.733
幸福感	-11.733
天花板	-11.7331
经济社会发展	-11.7331
契合	-11.7332
风湿	-11.7333
骑兵	-11.7333
月至	-11.7333
红豆	-11.7334
▁P	-11.7335
很差	-11.7335
政府采购	-11.7335
留下来	-11.7335
灸	-11.7335
这个事情	-11.7336
茫茫	-11.7337
AT	-11.7337
之王	-11.7338
楷	-11.7339
探测	-11.734
更需要	-11.7341
无视	-11.7341
日月	-11.7343
ou	-11.7343
可能出现	-11.7343
引来	-11.7343
产物	-11.7345
妥善	-11.7345
走出来	-11.7346
尤为	-11.7347
壮观	-11.7348
什么问题	-11.7348
想你	-11.7349
测绘	-11.7349
组装	-11.7349
等情况	-11.735
那么我们	-11.735
匙	-11.7351
高楼	-11.7351
拎	-11.7351
的案例	-11.7351
化身	-11.7352
办案	-11.7353
眼科	-11.7354
的资料	-11.7355
这天	-11.7356
篮板	-11.7357
疑似	-11.7359
节目中	-11.7362
颇为	-11.7362
屋子	-11.7362
掩饰	-11.7363
从根本上	-11.7364
纷	-11.7364
的结论	-11.7365
洞察	-11.7365
发脾气	-11.7368
跨界	-11.7368
吸气	-11.7369
升华	-11.737
蔚	-11.737
阜	-11.737
过量	-11.7371
高空	-11.7371
因为是	-11.7372
历年	-11.7373
甸	-11.7373
万元的	-11.7373
仙人	-11.7373
就是说	-11.7373
体系建设	-11.7374
竭	-11.7375
起飞	-11.7376
生抽	-11.7376
ent	-11.7377
偏向	-11.7378
个城市	-11.7379
PE	-11.7379
已经有了	-11.738
呼应	-11.738
一生的	-11.7381
栗	-11.7382
▁第三章	-11.7382
大意	-11.7383
显示出	-11.7383
本领	-11.7385
抉择	-11.7385
好莱坞	-11.7386
服务于	-11.7386
商务部	-11.7386
重启	-11.7386
吃饱	-11.7387
皇马	-11.7388
amp	-11.7389
闲置	-11.739
选出	-11.7391
添加剂	-11.7391
仙女	-11.7392
三层	-11.7394
中专	-11.7396
带回	-11.7397
卖的	-11.7399
升学	-11.7401
的姑娘	-11.7401
朴素	-11.7402
下发	-11.7403
使用寿命	-11.7403
新闻发布会	-11.7405
会越来越	-11.7405
红楼梦	-11.7406
令我	-11.7408
制止	-11.7412
党支部	-11.7412
分销	-11.7412
逃跑	-11.7413
up	-11.7414
股东大会	-11.7414
吓得	-11.7416
您可以	-11.7417
僵尸	-11.7418
的特殊	-11.7419
这两年	-11.742
主要从事	-11.7423
的大型	-11.7423
幸好	-11.7423
成功了	-11.7424
和中国	-11.7425
询	-11.7426
歼	-11.7428
贪婪	-11.7428
静静地	-11.7429
全社会	-11.7429
1%。	-11.7429
欢迎大家	-11.7429
也不可能	-11.743
all	-11.743
流产	-11.7431
的步伐	-11.7431
精油	-11.7431
就叫	-11.7433
马上就	-11.7434
指着	-11.7438
秤	-11.7439
周杰伦	-11.744
改良	-11.744
醒了	-11.7441
矫	-11.7441
下一代	-11.7442
的生日	-11.7442
盘点	-11.7443
浓郁	-11.7443
应用程序	-11.7446
补肾	-11.7448
体型	-11.7449
怎能	-11.745
下沉	-11.745
静电	-11.7451
的一次	-11.7451
亿次	-11.7451
这名	-11.7452
蛋黄	-11.7453
的矛盾	-11.7454
看了看	-11.7454
。2010	-11.7454
葡萄牙	-11.7454
基督	-11.7454
往返	-11.7455
支行	-11.7457
保健品	-11.7458
个人认为	-11.7458
列举	-11.7458
或将	-11.7458
给人一种	-11.7459
肺炎	-11.7459
伊拉克	-11.746
名利	-11.7461
玩意	-11.7462
冶金	-11.7462
外围	-11.7462
相关信息	-11.7465
讲到	-11.7469
情趣	-11.7469
条约	-11.747
使者	-11.747
嫌疑人	-11.747
迎合	-11.747
的技巧	-11.7471
而成的	-11.7471
驼	-11.7471
最关键的	-11.7471
色斑	-11.7471
酬	-11.7472
内置	-11.7473
是很难	-11.7473
的女子	-11.7475
运河	-11.7476
监督检查	-11.7476
世家	-11.7477
光照	-11.7478
动荡	-11.7479
就会出现	-11.7479
一些小	-11.748
形式的	-11.748
桓	-11.7481
硫	-11.7482
也因此	-11.7483
迟迟	-11.7484
由中国	-11.7485
项目建设	-11.7485
这个名字	-11.7485
行业中	-11.7486
现在还	-11.7487
很长时间	-11.7488
严格按照	-11.7492
企业所得税	-11.7494
和自己	-11.7494
大肠	-11.7495
纬	-11.7496
笑脸	-11.7496
胡子	-11.7497
请大家	-11.7497
年被	-11.7497
贫困户	-11.7498
生活水平	-11.7498
作为一种	-11.7501
以及其他	-11.7502
小哥	-11.7502
可能就	-11.7502
山县	-11.7504
樟	-11.7504
分布在	-11.7505
痔疮	-11.7505
抠	-11.7505
荷花	-11.7506
链条	-11.7506
安静的	-11.7507
小众	-11.7507
中央电视台	-11.7508
还包括	-11.7509
古今	-11.751
希望能够	-11.751
这样子	-11.7511
更具	-11.7511
感觉很	-11.7512
亲属	-11.7512
某人	-11.7513
文革	-11.7513
第二年	-11.7514
的房间	-11.7514
准入	-11.7514
噪声	-11.7516
相邻	-11.7516
法定代表人	-11.7517
副局长	-11.7517
送达	-11.7524
蕴含	-11.7524
着自己的	-11.7524
留住	-11.7525
的一部	-11.7526
清热	-11.7526
熊市	-11.7527
考了	-11.7528
建设和	-11.7528
的代表	-11.7528
可以参考	-11.7531
他们对	-11.7531
阴线	-11.7532
想看	-11.7534
钱财	-11.7536
渍	-11.7537
cr	-11.7538
表皮	-11.7538
乒乓球	-11.7538
军工	-11.7538
️	-11.7539
大灯	-11.7539
得罪	-11.7541
的题目	-11.7541
的证据	-11.7541
分校	-11.7543
的情景	-11.7544
毛主席	-11.7545
光环	-11.7545
方形	-11.7546
粉丝们	-11.7546
的投资者	-11.7546
专著	-11.7547
椎	-11.7548
初三	-11.7548
图文	-11.7548
卡通	-11.7549
野外	-11.755
臀	-11.755
几年前	-11.7551
小鸟	-11.7552
就该	-11.7552
出众	-11.7554
庄严	-11.7555
杂质	-11.7555
澄清	-11.7557
嗣	-11.7558
经济体	-11.7559
寺院	-11.7559
抗生素	-11.756
一脚	-11.756
哪一	-11.756
展出	-11.7563
能理解	-11.7565
光源	-11.7565
两百	-11.7566
▁据	-11.7567
不接受	-11.7567
留着	-11.7568
国道	-11.7569
索尼	-11.757
第二章	-11.757
操场	-11.7571
你不能	-11.7571
镍	-11.7571
近年	-11.7571
通话	-11.7571
莫斯科	-11.7571
随时随地	-11.7572
误差	-11.7572
持有的	-11.7572
特别喜欢	-11.7572
1984	-11.7574
并向	-11.7575
放了	-11.7576
入境	-11.7576
得很好	-11.7577
投资者提问	-11.7577
哪一个	-11.7577
是完全	-11.7578
控制在	-11.7578
占据了	-11.7579
嘴角	-11.7581
辜负	-11.7583
根源	-11.7583
还是挺	-11.7584
烈士	-11.7586
跳跃	-11.7587
任教	-11.7587
多看	-11.7588
硬化	-11.7588
但不能	-11.7589
倒闭	-11.7591
口岸	-11.7591
cn	-11.7591
羹	-11.7592
多一点	-11.7593
界定	-11.7593
喔	-11.7594
但是现在	-11.7594
棕	-11.7595
民用	-11.7595
有好处	-11.7596
出院	-11.7596
公认的	-11.7596
微创	-11.7597
抓紧	-11.7598
时分	-11.7599
声誉	-11.76
正月	-11.7601
东路	-11.7602
焚	-11.7602
2500	-11.7603
图表	-11.7604
溅	-11.7604
直升机	-11.7605
屏蔽	-11.7605
赢家	-11.7607
世界观	-11.7608
不需	-11.7608
菜品	-11.761
区域内	-11.7612
听完	-11.7612
亦可	-11.7612
be	-11.7612
极高	-11.7612
狂欢	-11.7613
擒	-11.7614
变态	-11.7616
溺	-11.7616
平庸	-11.7616
疯狂的	-11.7621
饭后	-11.7623
更名为	-11.7623
本会	-11.7624
会增加	-11.7624
工作效率	-11.7624
你真的	-11.7624
日晚间	-11.7625
CO	-11.7626
手腕	-11.7626
世代	-11.7626
想到的	-11.7627
〈	-11.7627
的背景	-11.7628
两端	-11.7631
超强	-11.7631
波兰	-11.7632
ao	-11.7633
熟人	-11.7633
兑现	-11.7633
重点关注	-11.7635
同理	-11.7636
极少	-11.7637
沮丧	-11.7638
军官	-11.7639
阵阵	-11.7639
高额	-11.764
恰恰	-11.764
电影院	-11.7641
一步一步	-11.7641
推介	-11.7641
不断提升	-11.7642
还给	-11.7642
无忧	-11.7643
要走	-11.7643
洽谈	-11.7644
会场	-11.7645
吃东西	-11.7645
▁第四节	-11.7645
浓厚	-11.7645
营运	-11.7646
学习成绩	-11.7646
很舒服	-11.7647
ang	-11.7647
宽敞	-11.7649
我就不	-11.7649
风貌	-11.765
寒假	-11.765
创造力	-11.7651
装配	-11.7651
特产	-11.7651
铸造	-11.7651
发表了	-11.7651
的审美	-11.7652
行政主管部门	-11.7652
高质量的	-11.7653
戏曲	-11.7653
很适合	-11.7655
MP	-11.7655
刘海	-11.7656
收支	-11.7658
舅	-11.7658
囚	-11.7658
收割	-11.7659
靓	-11.7659
臀部	-11.766
关口	-11.766
开办	-11.7661
买东西	-11.7662
以为是	-11.7663
两个小时	-11.7666
介绍一下	-11.7667
旅途	-11.7667
在英国	-11.7668
很奇怪	-11.7668
幕后	-11.7668
那条	-11.7668
丰收	-11.7668
庶	-11.767
哗	-11.7671
弄得	-11.7673
sp	-11.7674
列为	-11.7674
再把	-11.7676
元件	-11.7676
是基于	-11.7676
和个人	-11.7677
会变成	-11.7677
用户体验	-11.7679
作出了	-11.7679
爱美	-11.768
巴萨	-11.7681
蚀	-11.7681
有空	-11.7682
可想而知	-11.7682
晚报	-11.7685
执导	-11.7685
就一定	-11.7686
圣诞节	-11.7686
表态	-11.769
学说	-11.769
不爽	-11.7691
的宣传	-11.7691
基本上是	-11.7692
隆重	-11.7692
合唱	-11.7693
的日常	-11.7693
图为	-11.7693
向你	-11.7694
洛杉矶	-11.7694
饥饿	-11.7694
刻苦	-11.7694
相逢	-11.7695
浓缩	-11.7697
助推	-11.7698
中超	-11.7698
前锋	-11.7699
光绪	-11.77
不带	-11.7701
西路	-11.7701
桂花	-11.7702
不懂得	-11.7702
踪	-11.7703
秃	-11.7705
为客户提供	-11.7706
泥土	-11.7706
果汁	-11.7707
傻子	-11.7707
原则上	-11.7708
宣传部	-11.7709
年华	-11.771
下达	-11.7711
烟草	-11.7711
选中	-11.7712
时时	-11.7713
面孔	-11.7713
。2012	-11.7714
干净的	-11.7715
在别人	-11.7715
戴上	-11.7715
合作关系	-11.7717
英格兰	-11.7717
坐下	-11.7718
电阻	-11.7718
党政	-11.7718
城墙	-11.7718
不走	-11.7719
股市场	-11.7719
纸质	-11.7719
午饭	-11.772
你认为	-11.7721
庭院	-11.7722
一下自己	-11.7723
一楼	-11.7725
诉说	-11.7726
检察院	-11.7729
身旁	-11.7733
后才	-11.7734
九龙	-11.7736
的球员	-11.7737
诈	-11.7737
翟	-11.7738
配色	-11.7739
培养孩子	-11.7739
的最好	-11.7739
也能够	-11.7741
言情	-11.7742
个多月	-11.7742
使我们	-11.7743
投标人	-11.7743
把他们	-11.7743
抗癌	-11.7745
为目的	-11.7745
监管部门	-11.7747
敌方	-11.7748
闪电	-11.775
盛开	-11.775
△	-11.775
先用	-11.7751
ci	-11.7751
不放	-11.7752
外壳	-11.7754
躺着	-11.7755
飞行员	-11.7756
ion	-11.7757
打入	-11.7757
给出了	-11.7757
细微	-11.7761
簇	-11.7761
逼	-11.7761
甜甜	-11.7762
捷径	-11.7763
美化	-11.7763
日出	-11.7763
出局	-11.7764
工程技术	-11.7764
搭档	-11.7764
抗拒	-11.7766
课后	-11.7766
可以达到	-11.7767
正值	-11.7768
下场	-11.7769
考量	-11.777
匈奴	-11.777
VR	-11.7771
磁场	-11.7771
传导	-11.7772
量产	-11.7772
欺诈	-11.7772
神经系统	-11.7772
颈椎	-11.7774
参考书	-11.7775
小花	-11.7776
更深	-11.7777
缕	-11.7777
成为中国	-11.7779
格尔	-11.7781
孕期	-11.7783
写字楼	-11.7784
了不起	-11.7784
居室	-11.7785
稀释	-11.7785
信息显示	-11.7788
知识分子	-11.7789
构思	-11.7791
学生会	-11.7791
开源	-11.7792
窟	-11.7792
特地	-11.7793
BA	-11.7793
有道理	-11.7793
真皮	-11.7793
的形成	-11.7794
失控	-11.7795
用餐	-11.7795
2%。	-11.7795
突击	-11.7798
1989	-11.7799
五星	-11.7799
我也不知道	-11.7801
工序	-11.7801
觉得我	-11.7802
网络营销	-11.7802
展现了	-11.7802
地主	-11.7804
娄	-11.7806
亿亿亿	-11.7807
敬畏	-11.7807
库里	-11.7807
收敛	-11.7808
的数字	-11.7808
cd	-11.7809
赛车	-11.7809
确定了	-11.7811
等部门	-11.7811
海峡	-11.7811
名著	-11.7812
亲身	-11.7812
误导	-11.7812
学长	-11.7814
的饮食	-11.7815
印象深刻	-11.7815
选择题	-11.7817
MS	-11.7819
油漆	-11.7821
污水处理	-11.7823
亮度	-11.7823
流向	-11.7823
有幸	-11.7824
木质	-11.7824
组织开展	-11.7826
内脏	-11.7826
叙事	-11.7826
些许	-11.7827
有三个	-11.7829
岛屿	-11.7829
出现过	-11.7829
切断	-11.783
跌停	-11.783
读过	-11.783
那句	-11.7831
梅西	-11.7832
穿衣	-11.7833
使自己	-11.7833
裔	-11.7834
现今	-11.7835
自古	-11.7836
于一体的	-11.7836
救灾	-11.7836
无心	-11.7836
宣称	-11.7836
350	-11.7838
分量	-11.784
前所未有的	-11.7841
反正我	-11.7842
认定为	-11.7843
闪烁	-11.7844
购车	-11.7844
暴涨	-11.7847
打扫	-11.7849
的每一个	-11.7849
的胜利	-11.7849
的产物	-11.785
都必须	-11.7851
对社会	-11.7853
活的	-11.7854
无从	-11.7854
和他们	-11.7855
违纪	-11.7856
这个故事	-11.7857
会变得	-11.7858
私有	-11.786
的控制	-11.7861
滥用	-11.7861
挂号	-11.7861
这个游戏	-11.7862
千米	-11.7863
檀	-11.7863
例外	-11.7864
怪兽	-11.7867
无意	-11.7868
追随	-11.787
花儿	-11.787
内侧	-11.7871
绝对不会	-11.7871
不得已	-11.7872
测算	-11.7873
结实	-11.7874
智者	-11.7875
日照	-11.7876
背包	-11.7876
小时内	-11.7877
的后果	-11.7877
师资	-11.7877
开朗	-11.7877
山地	-11.7878
前一天	-11.7879
书桌	-11.7879
尊贵	-11.788
供货	-11.788
各项工作	-11.7881
亲友	-11.7883
拳头	-11.7885
日常生活中	-11.7885
上衣	-11.7886
为自己的	-11.7886
我们不能	-11.7886
破了	-11.7888
山村	-11.789
面试官	-11.789
从头	-11.7891
1987	-11.7892
打到	-11.7893
使劲	-11.7893
盐水	-11.7894
ng	-11.7894
周刊	-11.7896
ea	-11.7897
紊乱	-11.7898
不打	-11.7901
伤感	-11.7901
主演的	-11.7901
躲避	-11.7904
理解和	-11.7905
不是什么	-11.7905
准备工作	-11.7907
递交	-11.7907
本国	-11.7908
芥	-11.7909
崎	-11.7909
擦拭	-11.7909
持平	-11.7911
的世界里	-11.7912
意想不到的	-11.7912
技术上	-11.7913
围观	-11.7914
尽量不要	-11.7914
退市	-11.7915
那张	-11.7915
很厉害	-11.7916
督查	-11.7916
凭着	-11.7917
面对面	-11.7917
巨星	-11.7919
俘	-11.7919
把控	-11.792
本品	-11.792
邓小平	-11.7921
焖	-11.7921
完备	-11.7922
小康	-11.7924
无语	-11.7924
一点儿	-11.7924
中队	-11.7925
张某	-11.7925
冲锋	-11.7926
此人	-11.7926
顺势	-11.7926
的气氛	-11.7927
耗费	-11.7927
看着我	-11.7928
不买	-11.7928
领军	-11.7928
结合起来	-11.7929
极力	-11.793
▁m	-11.793
因缘	-11.7931
出问题	-11.7931
掰	-11.7931
波段	-11.7933
km	-11.7933
亦有	-11.7934
生猪	-11.7935
两地	-11.7937
曼联	-11.7939
是假的	-11.7939
10.	-11.794
使用者	-11.794
用完	-11.794
解锁	-11.7941
的强大	-11.7941
雷霆	-11.7943
支柱	-11.7944
每到	-11.7944
印尼	-11.7945
试用	-11.7945
敏锐	-11.7945
的年龄	-11.7946
一再	-11.7947
急需	-11.7947
稳固	-11.7949
让客户	-11.7954
始建于	-11.7956
竣工	-11.7956
墙体	-11.7957
车厢	-11.7957
代表作	-11.7957
标配	-11.7958
南阳	-11.7958
上场	-11.796
外侧	-11.796
万年	-11.796
道家	-11.796
满脸	-11.7962
一角	-11.7963
fa	-11.7964
局副局长	-11.7965
方能	-11.7966
相近	-11.7966
解剖	-11.7967
别忘了	-11.7968
中场	-11.7969
高地	-11.797
粉碎	-11.797
开放式	-11.797
这首	-11.7972
描	-11.7972
你就是	-11.7975
除非你	-11.7976
也许你	-11.7977
无数的	-11.7977
肛	-11.7978
盛行	-11.7978
款项	-11.7978
变压器	-11.7978
花纹	-11.7978
金字塔	-11.7979
记者从	-11.7981
之后再	-11.7982
怀抱	-11.7983
快餐	-11.7983
梦境	-11.7984
对我的	-11.7984
二楼	-11.7984
端正	-11.7984
MBA	-11.7986
看到一个	-11.7986
牵手	-11.7987
主要以	-11.7987
支部	-11.7988
因此在	-11.7989
驾驭	-11.799
个字	-11.7992
揭开	-11.7994
为国家	-11.7994
缝隙	-11.7994
能做的	-11.7995
个人所得税	-11.7996
稍有	-11.7996
建筑工程	-11.7999
泡泡	-11.8
晓得	-11.8002
托福	-11.8003
适中	-11.8003
四是	-11.8004
斑点	-11.8006
是国家	-11.8006
拜访	-11.8007
买来	-11.8007
涨跌	-11.8008
保姆	-11.801
3%。	-11.801
倾向于	-11.801
岁以下	-11.8011
美美	-11.8013
而出	-11.8013
调和	-11.8015
告诉自己	-11.8015
极了	-11.8016
在深圳	-11.8016
甚至可以	-11.8017
国际上	-11.802
秉	-11.8022
统统	-11.8023
防线	-11.8023
瞳	-11.8024
一如既往	-11.8025
底盘	-11.8025
是一个非常	-11.8025
舒缓	-11.8026
唯独	-11.8028
村落	-11.8029
等内容	-11.803
就是一种	-11.803
如何看待	-11.8031
博会	-11.8031
政府部门	-11.8032
耀眼	-11.8032
兼任	-11.8036
▁第四章	-11.8036
自发	-11.8036
红糖	-11.8036
教科书	-11.8037
鄙视	-11.8037
灭亡	-11.8039
双脚	-11.8039
最高人民法院	-11.8039
客气	-11.804
农家	-11.8041
▁杨	-11.8042
宠爱	-11.8042
企事业单位	-11.8043
河水	-11.8045
的信念	-11.8045
东亚	-11.8045
憨	-11.8047
变得越来越	-11.8047
本月	-11.8048
魔术	-11.8048
顾虑	-11.8049
急于	-11.805
可持续	-11.805
宫廷	-11.805
过剩	-11.8052
相比于	-11.8052
将被	-11.8053
当然了	-11.8053
音乐学院	-11.8053
走下去	-11.8054
爆款	-11.8056
现在我们	-11.8056
召集	-11.8056
严重影响	-11.8057
靠谱的	-11.8058
长长的	-11.8058
痊愈	-11.8058
降到	-11.8059
最先	-11.8061
非常适合	-11.8062
彩礼	-11.8062
男篮	-11.8063
一开始就	-11.8063
健脾	-11.8064
胃口	-11.8065
意义上	-11.8066
毛发	-11.8067
狐臭	-11.8068
笃	-11.807
黎明	-11.807
觉醒	-11.8071
暑期	-11.8071
忏悔	-11.8071
香菜	-11.8071
发文	-11.8072
不同的是	-11.8072
亿元人民币	-11.8073
螺丝	-11.8074
教育局	-11.8075
赞助	-11.8075
弱点	-11.8076
我第一次	-11.8077
一定能	-11.8078
第三届	-11.8078
治国	-11.8079
看懂	-11.8079
的同事	-11.8079
瑕疵	-11.8083
要好好	-11.8083
埋怨	-11.8084
够了	-11.8085
虽然说	-11.8085
三代	-11.8085
配料	-11.8087
1986	-11.8087
IS	-11.8088
的事儿	-11.8089
让人觉得	-11.809
必要时	-11.809
班上	-11.8091
孤立	-11.8091
家境	-11.8091
多变	-11.8092
互补	-11.8093
揪	-11.8094
的表演	-11.8094
反向	-11.8095
存活	-11.8096
积极参与	-11.8096
下课	-11.8096
元钱	-11.8096
能帮助	-11.8097
山下	-11.8099
哈佛	-11.8099
分辨率	-11.81
看着他	-11.8101
星级	-11.8101
滚动	-11.8103
腋	-11.8105
装甲	-11.8106
畏惧	-11.8107
看不起	-11.8108
投入到	-11.8108
霸王	-11.8108
默契	-11.8108
通畅	-11.8108
开封	-11.8109
十余	-11.8111
议会	-11.8111
议员	-11.8112
它能	-11.8112
超标	-11.8112
非常喜欢	-11.8114
阀门	-11.8114
深厚的	-11.8115
借此	-11.8116
感受到了	-11.8116
石材	-11.8116
相关专业	-11.8116
ceo	-11.8117
朦胧	-11.8117
生化	-11.8118
或多或少	-11.8118
睡着了	-11.8118
和支持	-11.8118
这个道理	-11.8119
滥	-11.812
牵着	-11.8121
国内市场	-11.8121
中国队	-11.8122
表现出来	-11.8123
出错	-11.8124
毫升	-11.8124
快点	-11.8128
脐	-11.8128
河边	-11.8128
出厂	-11.8129
这是我们	-11.8129
舰队	-11.8129
一模一样	-11.8129
耳边	-11.813
滨海	-11.813
翻身	-11.8131
看不懂	-11.8132
美术馆	-11.8135
责任心	-11.8135
大使	-11.8136
日产	-11.8137
惠州	-11.8138
__	-11.8138
对生活	-11.8139
直流	-11.8139
反而会	-11.8139
太长	-11.8141
侮辱	-11.8142
高新	-11.8142
的最后一	-11.8142
山寨	-11.8143
刻画	-11.8144
的主要原因	-11.8144
不希望	-11.8145
全职	-11.8146
铺设	-11.8146
一系列的	-11.8147
得失	-11.8147
的成分	-11.8148
所示	-11.8149
成败	-11.8151
上扬	-11.8152
念头	-11.8152
试探	-11.8153
基本都	-11.8154
入围	-11.8154
募集资金	-11.8155
俄国	-11.8155
为难	-11.8156
在床上	-11.8156
延安	-11.8157
堕落	-11.8157
眼中的	-11.8158
小品	-11.8159
白白	-11.816
事物的	-11.8161
品德	-11.8161
的话语	-11.8161
轿	-11.8162
多一些	-11.8163
单个	-11.8164
让其	-11.8164
南非	-11.8165
月以来	-11.8166
的天气	-11.8169
徒步	-11.8169
传说中的	-11.817
证明自己	-11.817
走走	-11.817
写到	-11.8171
记账	-11.8171
要不然	-11.8174
搞清楚	-11.8175
也是可以	-11.8175
瞪	-11.8176
旗帜	-11.8177
pro	-11.8177
冠心病	-11.8177
决不	-11.8177
抵御	-11.8178
说明你	-11.8179
赞赏	-11.8179
身穿	-11.8179
和家人	-11.818
所处的	-11.818
牛仔	-11.8181
开幕式	-11.8181
现在很多	-11.8183
。­	-11.8183
年获	-11.8185
货源	-11.8186
岐	-11.8187
韶	-11.8188
所学校	-11.8189
星级酒店	-11.819
双腿	-11.819
之物	-11.8191
变色	-11.8192
的念头	-11.8195
油气	-11.8197
听众	-11.8197
法律责任	-11.8198
美国总统	-11.8198
先将	-11.8199
日常工作	-11.8199
朱元璋	-11.82
文化产业	-11.82
也有可能	-11.8202
我都会	-11.8205
长线	-11.8208
万人次	-11.8208
和睦	-11.8208
此举	-11.8209
猎人	-11.8209
睡着	-11.8209
ber	-11.821
将自己的	-11.821
胡同	-11.8211
通关	-11.8211
寂静	-11.8212
海内外	-11.8214
一起来看看	-11.8214
提升自己	-11.8217
莫过于	-11.8217
举动	-11.8218
等功能	-11.8219
组成部分	-11.822
厥	-11.8222
使你	-11.8223
逮捕	-11.8223
微观	-11.8223
敦煌	-11.8223
充当	-11.8224
久而久之	-11.8224
。2009	-11.8225
金币	-11.8225
葵	-11.8226
嘲讽	-11.8226
风机	-11.8227
刊物	-11.8227
一架	-11.8229
考入	-11.8229
也很难	-11.8231
一汽	-11.8231
改动	-11.8231
直言	-11.8231
则会	-11.8234
保定	-11.8234
较强	-11.8236
推向	-11.8236
柏林	-11.8237
氨酸	-11.8238
的策略	-11.824
办公厅	-11.824
制剂	-11.8241
苦苦	-11.8241
无名	-11.8241
历时	-11.8242
离别	-11.8244
谢谢你	-11.8244
舍得	-11.8245
婚纱	-11.8246
孰	-11.8246
去寻找	-11.8247
拟定	-11.8247
为宜	-11.8247
胰岛素	-11.8248
我也不	-11.8248
筹划	-11.825
滚滚	-11.825
预留	-11.8252
研究方向	-11.8253
角度看	-11.8255
精神病	-11.8256
贵妃	-11.8256
ii	-11.8256
笑笑	-11.8257
常州	-11.8257
税务局	-11.8257
金黄	-11.8257
渔业	-11.8258
很多朋友	-11.8258
年轻时	-11.8258
争执	-11.8258
老人家	-11.8259
蜡烛	-11.826
预告	-11.8261
将要	-11.8265
总算	-11.8265
行事	-11.8266
涉案	-11.8267
诗意	-11.8267
过一次	-11.8268
可以获得	-11.827
悼	-11.8271
真的太	-11.8271
十多	-11.8271
行政部门	-11.8272
家教	-11.8273
华山	-11.8273
佛像	-11.8273
我一个人	-11.8273
出击	-11.8274
偏离	-11.8275
经纪	-11.8275
无非是	-11.8276
亦是	-11.8276
心生	-11.8279
这种感觉	-11.8279
变身	-11.8279
第三节	-11.828
搁	-11.828
沉浸在	-11.8285
开场	-11.8285
挂着	-11.8288
向东	-11.8288
湖泊	-11.8289
我们必须	-11.829
的每一	-11.8291
考查	-11.8292
行长	-11.8293
新生儿	-11.8295
学过	-11.8297
钻研	-11.8297
年第	-11.8297
几条	-11.8298
长生	-11.8298
企稳	-11.8298
史料	-11.8298
保值	-11.8298
生活质量	-11.8299
爵士	-11.83
上厕所	-11.8301
来电	-11.8302
抓获	-11.8303
波浪	-11.8304
-15	-11.8305
雍正	-11.8306
也是一样	-11.8307
都能够	-11.8308
典雅	-11.8309
也可能是	-11.8312
坚持下去	-11.8312
被别人	-11.8312
多达	-11.8312
愈合	-11.8312
德育	-11.8314
乔治	-11.8315
出炉	-11.8315
都快	-11.8317
太低	-11.8319
较差	-11.8319
总会有	-11.8319
置换	-11.8319
如来佛祖阿弥陀佛亿亿亿	-11.832
只是个	-11.832
千元	-11.832
下一次	-11.8321
即使在	-11.8321
的方式来	-11.8321
有效期	-11.8325
压根	-11.8326
钢材	-11.8328
第十八	-11.8328
深渊	-11.8328
羽毛球	-11.8329
这方面的	-11.833
长大后	-11.8331
鉴赏	-11.8332
到底是什么	-11.8333
倒霉	-11.8333
的标志	-11.8336
最优	-11.8337
便利店	-11.8338
迷你	-11.8338
来往	-11.8339
黄山	-11.834
一经	-11.8342
电子产品	-11.8342
国际贸易	-11.8342
是不可能的	-11.8342
达尔	-11.8343
风筝	-11.8343
正常人	-11.8343
繁琐	-11.8344
打法	-11.8344
的难度	-11.8345
朴实	-11.8347
架子	-11.8347
撞击	-11.8348
的独特	-11.8348
大王	-11.8349
保洁	-11.835
ns	-11.835
未婚	-11.835
错题	-11.8351
根基	-11.8351
为您提供	-11.8351
在欧洲	-11.8352
恐龙	-11.8352
生怕	-11.8352
水资源	-11.8352
搬到	-11.8354
成份	-11.8355
著作权	-11.8355
bb	-11.8356
整容	-11.8357
的正确	-11.8358
的年代	-11.8359
最强的	-11.8361
的形状	-11.8362
榆	-11.8363
惊人的	-11.8363
领导下	-11.8363
呼吸道	-11.8364
豆浆	-11.8364
推开	-11.8364
也许会	-11.8365
近乎	-11.8365
眯	-11.8366
主食	-11.8367
bi	-11.8367
大概就是	-11.8372
法语	-11.8372
胞	-11.8373
上层	-11.8374
玩儿	-11.8376
吃苦	-11.8376
无尽	-11.8377
洼	-11.8377
参保	-11.8379
李某	-11.8379
叹息	-11.838
散发	-11.8382
还行	-11.8382
留存	-11.8383
对外开放	-11.8383
切忌	-11.8384
太快	-11.8386
充值	-11.8386
布朗	-11.8388
时而	-11.8389
大笑	-11.8389
撸	-11.839
1/	-11.8391
完之后	-11.8391
谁知道	-11.8391
聚餐	-11.8392
放着	-11.8393
全校	-11.8395
回家了	-11.8395
君主	-11.8395
已知	-11.8396
公司将	-11.8398
侦	-11.8399
点点	-11.8401
车门	-11.8401
盈利能力	-11.8402
呜	-11.8402
遇到过	-11.8403
底气	-11.8403
有关系	-11.8403
[...]
